memory_initialization_radix=10;
memory_initialization_vector=
7746018
3072
23
9245553
-37120
-28
9103762
10240
8
7469599
-30208
-6
6818988
6016
18
8160647
1408
5
7248981
2560
8
8166784
1024
5
6224650
-97792
7
5753238
-162688
-7
8355495
11136
4
10093618
-142592
-10
5719665
-119936
-2
10832868
-42112
0
8752291
-7424
7
4347754
-36608
2
6964909
55808
15
5148225
-121856
-1
6646452
-56192
-18
5505875
89216
-2
10956775
193920
-7
14541031
21760
3
15300416
3584
-11
11519384
7552
-3
10905121
-57856
-2
10957251
105216
5
10712092
9728
4
12204015
-7808
4
12896986
-46336
0
9468284
-29184
7
13143061
145920
-1
8931776
8448
-2
9145779
72192
7
16795979
51200
-4
16770073
22144
3
11550352
26496
0
3847085
704256
-2
3847085
-273024
1
3847085
-501632
1
3847085
-850688
1
3847085
-370944
1
3847085
-1024128
6
3847085
-612096
4
3847085
327040
-1
3847085
-697984
4
3847085
660608
-1
3847085
-884864
5
3847085
650368
-1
21738530
17792
0
21738530
-5888
1
21738530
3328
0
21738530
-17024
1
21738530
-3456
1
21738530
-39808
0
21738530
9344
0
21738530
28800
1
16042930
12416
0
16042930
34048
0
;