memory_initialization_radix=10;
memory_initialization_vector=
96
113
-8
-127
117
-36
-108
-67
-4
-84
-104
62
78
56
-11
127
77
89
-92
-55
-75
-50
62
127
88
-24
-61
127
-15
-41
110
17
-100
55
109
-26
-127
92
-78
-89
94
110
-37
97
-109
79
48
69
28
-76
31
-127
-109
46
92
-127
-10
-101
126
-9
80
-67
-4
119
-127
19
92
-59
-86
1
126
-93
-19
58
-52
74
99
2
23
-33
25
102
80
61
-71
90
23
-23
27
0
72
47
-22
26
-54
-50
34
-22
-35
-113
-43
2
-54
3
7
44
31
68
-31
20
45
127
15
68
42
-8
31
46
-26
-49
-8
0
-28
29
127
68
127
42
-38
93
-5
0
14
26
-77
-45
-95
-32
5
2
-65
17
43
66
-119
-90
-76
13
-57
-42
43
45
97
127
41
-60
91
-15
12
-107
-60
24
38
6
84
-87
104
67
-55
-7
-83
-77
-5
57
62
-12
26
-53
-109
-50
39
-60
-64
-33
-51
-44
48
11
-23
-71
-39
-47
59
76
-53
0
-9
17
-41
-38
-52
-15
40
48
0
-48
31
38
-11
-78
-37
-16
29
10
33
22
56
-62
-20
-109
-86
-74
42
73
-10
-25
5
55
-21
17
47
-2
-33
-5
38
46
55
66
-1
2
-21
-12
-67
69
-95
-118
82
-21
-50
-97
-87
91
77
-26
56
92
69
-49
50
17
-62
16
73
-98
-24
11
-42
-17
68
68
25
47
-56
27
11
4
63
-47
-37
79
-16
-54
41
-39
-60
5
78
-15
12
-111
-127
2
-30
83
-26
18
-56
56
-20
11
115
20
-7
70
10
-14
-53
-40
24
116
46
45
-127
-81
-30
-5
55
-46
-38
-28
44
12
-23
111
37
116
-17
-44
108
43
9
84
59
74
44
-21
26
-22
-64
-43
-35
-4
58
85
13
28
35
3
-10
52
-40
22
-80
73
-126
64
35
29
-94
-40
-56
-31
7
102
62
-51
-61
-14
-35
90
70
96
102
-36
105
62
25
68
57
4
127
-17
-21
71
-65
-98
-11
22
-61
-103
-92
-5
-27
0
-19
-22
64
-36
-6
88
-53
-27
28
9
-54
-37
-48
73
-33
0
-55
-65
-20
76
43
-16
26
-36
54
37
-31
25
-10
48
57
-66
43
61
13
1
-21
18
20
-14
15
-105
-46
-68
5
50
5
34
-38
-9
31
-6
43
-44
31
-20
-31
8
58
-37
-27
13
-11
-1
4
97
-54
0
121
28
-19
43
-41
66
46
11
60
45
40
82
-9
-29
1
86
93
-86
-65
-44
-52
-8
85
-47
-44
70
-88
84
-31
-15
-14
11
8
77
97
49
24
-10
-12
42
3
19
82
14
-64
25
34
97
-44
33
32
-28
-8
107
62
103
95
-61
38
83
-25
-49
-2
71
59
10
-31
-42
-10
63
50
51
-49
23
20
3
-9
117
120
90
70
2
42
29
-6
-37
-63
50
55
52
-19
26
3
-23
9
-51
61
-9
-80
-45
25
-102
1
-25
-28
-94
-52
58
-99
38
119
-63
-42
54
65
58
-67
100
72
-109
52
-114
-54
36
77
-24
32
-77
72
-60
-7
-28
119
48
67
0
-119
-34
16
6
-39
63
-93
-112
-98
-105
-101
-110
-51
-30
27
70
69
4
15
7
19
97
-50
53
40
-33
-24
65
-9
52
82
-16
37
8
77
-49
-68
17
32
50
0
-111
-77
-30
-7
-10
-29
55
35
33
104
9
-7
103
42
-15
-53
-23
-13
41
-25
-15
-13
50
-29
61
106
1
125
44
1
33
-36
-19
-24
43
-46
63
55
-11
94
71
-44
-10
-73
13
-57
-28
-127
-33
-107
-5
-22
-14
73
13
2
84
79
43
-66
-63
16
39
-25
43
85
20
-54
20
-6
-65
-39
27
-127
17
35
66
9
62
-7
-51
31
32
46
80
62
-1
108
-12
-57
45
-35
79
-50
-61
127
9
39
-47
-47
-9
20
14
2
-12
-27
-107
-45
52
68
-46
-34
55
100
-34
127
98
-35
23
24
49
26
-3
-7
99
47
27
0
-52
31
-30
-49
-5
-8
-36
-5
31
-21
56
25
-56
-44
-26
-73
6
-60
81
103
127
-48
39
-68
-23
73
-56
-44
49
24
-27
-49
24
-13
8
40
-64
18
49
-5
-40
92
66
20
-5
83
114
-12
88
19
-70
-65
-23
-38
-15
-26
-49
30
2
45
90
-10
96
63
112
78
-23
1
-54
-33
43
9
106
76
-46
112
-6
-70
-14
4
-31
46
16
-18
25
9
23
52
4
77
-9
20
93
41
59
79
65
60
-5
-72
-92
-12
31
-64
37
61
53
13
-44
-16
-21
-33
-15
-3
64
-16
-2
-74
14
-32
-70
37
-64
-29
78
67
55
86
-75
-31
47
-17
48
-30
-119
24
-4
-104
67
-75
8
-75
-38
103
-83
-78
26
-19
-69
19
107
9
70
-43
11
55
60
-2
-24
-44
-83
-6
-28
-29
10
74
-4
19
100
-122
0
29
-57
-26
26
19
-65
-67
56
-39
49
-10
-53
36
-55
-40
50
-127
-52
81
-71
-44
-14
6
-91
-70
7
5
-64
23
55
-100
24
-45
-127
54
15
116
-25
59
63
59
35
-47
127
-6
18
11
-73
-73
-25
-73
-21
-13
-64
5
27
57
39
83
11
-5
19
47
-49
-58
-15
12
13
-78
0
4
67
83
26
-36
4
-49
-85
-30
79
-12
57
0
53
-7
15
-23
-55
28
2
38
38
16
115
17
28
109
87
-13
44
39
4
6
-21
-37
-15
35
-45
49
-56
74
23
-35
31
28
23
38
-48
9
24
-18
58
-3
-26
11
-71
-9
56
5
-19
71
30
-41
41
37
22
87
30
-34
78
60
-10
-106
-8
-96
36
36
-62
-81
-16
-85
64
40
-18
35
45
-112
50
52
7
24
51
-41
-26
18
-12
39
56
24
9
22
-39
-5
1
20
-8
6
-66
13
80
-11
78
44
29
12
103
-2
42
8
-28
55
-10
52
69
-100
-4
-45
72
-28
-40
-63
-117
-88
12
-67
74
3
-26
3
37
-127
-86
-28
-97
68
-10
69
-2
-5
9
21
43
12
5
88
65
22
54
34
49
34
8
-36
-31
-75
-66
-22
2
31
18
-32
-75
7
-70
100
22
77
65
-18
2
-21
22
80
-7
-35
78
6
23
-50
-6
-59
-40
-18
-74
-30
-35
-19
-127
49
-65
-24
-4
15
67
52
-39
38
59
25
65
31
4
-53
45
73
-30
-68
-11
-97
22
-73
3
-55
59
-40
43
70
36
39
7
-25
-11
-127
2
-15
53
18
-64
39
-4
20
2
18
46
95
53
-79
64
36
-42
37
12
-32
-84
-70
43
-39
36
-2
-1
-15
23
-37
12
-3
-78
4
-45
20
69
97
-45
41
-100
-69
53
-53
25
1
-58
33
-51
-67
91
-28
10
41
69
71
26
20
57
-42
-18
18
-37
4
93
16
64
-31
-37
-30
83
101
75
38
-78
-88
-127
-58
-25
-29
-7
-57
26
32
-55
40
28
53
-4
13
5
77
-24
78
-51
-36
-13
108
9
71
2
20
21
-3
-11
-33
-51
-44
-22
-31
94
-15
65
18
13
-76
-15
2
-6
-35
-11
-74
9
36
50
63
56
-82
31
27
-45
31
25
-16
53
40
10
-60
-30
-53
-18
13
-25
79
69
33
57
-23
-52
46
9
-79
-57
1
-33
-54
-7
-75
-79
-19
-38
-64
1
23
69
26
-48
16
42
-4
-120
-25
-38
26
-43
20
69
4
-7
-29
-44
-23
32
-74
-65
-53
37
-74
-33
-54
-48
-10
-19
2
30
52
-16
-41
10
-30
-30
-46
-2
33
37
-38
66
5
-39
40
-50
0
-55
58
-64
-44
41
-73
-45
-22
-3
35
12
31
3
43
66
73
75
32
47
-68
-89
32
-56
-69
-98
38
76
-11
-32
83
87
10
51
6
27
43
10
40
-15
-41
25
-54
43
60
-35
-39
14
72
-36
-32
69
18
7
59
-33
-47
63
-32
-22
32
-72
6
-1
-42
-104
-5
-52
49
-66
46
-114
-37
-40
-56
-33
8
-3
-75
-29
-20
33
34
49
58
-15
-30
-31
-84
-2
59
35
-13
42
-29
23
25
75
-17
-65
14
93
55
124
13
-1
-37
23
-58
31
-1
-97
-9
-70
-36
39
-34
-44
35
44
-27
79
-59
-30
67
-2
6
-7
55
7
20
27
7
-39
-45
45
32
24
77
62
23
-27
-25
21
102
127
20
-16
-100
-32
-61
-101
-112
-78
-82
-88
-54
-72
61
118
127
41
96
-23
-56
36
-26
-65
-34
86
-31
-31
84
-66
13
-15
-68
-34
-29
-15
-5
-22
-15
37
19
1
19
-16
15
18
-26
1
-12
68
-21
-7
49
19
32
-40
38
36
-13
27
-3
2
-26
-16
-93
-4
-47
-6
-45
-49
-36
37
-39
38
25
52
-56
21
46
73
-13
-71
31
25
-38
56
27
59
-3
-63
-30
45
-29
3
0
9
107
34
4
-14
-122
-14
-54
-78
-41
-104
-34
-57
72
86
94
-67
-21
-91
124
85
40
33
-34
-70
-121
11
-1
19
61
32
63
94
-88
-58
62
-58
-31
-56
13
-40
-33
13
-34
-17
10
-65
-12
23
-32
-16
-105
48
45
72
12
-31
-64
-43
-3
-79
29
-24
18
42
39
-105
-54
-98
-14
35
-54
65
-127
-13
0
-13
-79
-75
-26
74
-29
33
-34
-39
23
-46
-37
17
-32
-1
-72
-17
0
-26
-9
37
22
5
-42
-78
8
56
-56
15
49
27
25
44
-8
-27
-49
71
-65
-79
-32
-53
5
-52
17
11
47
-6
-43
59
-13
10
-38
14
-10
34
-20
8
-4
20
-23
60
55
-6
2
87
-13
59
31
11
-71
-7
-7
51
-17
-67
11
30
-21
-59
-33
-29
-30
13
-6
32
74
-14
9
37
78
56
104
39
72
34
-85
17
-64
-14
22
52
-43
-96
21
44
-30
-2
-48
5
58
32
-17
-16
-29
-26
-73
-86
-10
2
56
75
-39
31
55
-1
18
-15
-2
-10
-28
14
-4
40
-53
-111
-32
-19
-66
-30
74
-36
42
66
36
-33
-26
-59
41
-36
-58
15
-24
-40
-14
-10
-14
54
0
14
-29
-34
-60
42
68
-23
37
35
-25
-127
-35
74
-118
-77
-13
-66
14
45
-74
13
-27
-127
-10
-3
-53
-50
-75
77
54
46
21
9
41
50
-100
22
9
69
44
-115
51
77
-108
-87
-25
-104
78
-32
-43
103
9
-2
-29
-32
-56
-38
59
-8
-78
53
76
28
-4
42
-9
-66
97
40
-96
-61
-23
-37
-52
-109
6
-12
28
71
39
83
12
-5
24
53
-37
-37
-12
19
41
101
-14
32
28
-30
-27
82
7
-127
-56
-48
-36
-23
-44
12
-13
-14
53
-18
-10
-78
-4
19
-43
43
-21
10
68
-8
56
22
-112
-27
28
-90
-48
19
-43
-6
-92
3
-47
-58
32
122
18
98
33
51
44
32
24
-6
0
-26
3
-23
75
36
-24
18
-27
-54
-75
88
34
-37
34
39
-69
79
38
-25
-5
30
-31
46
-38
32
-20
32
55
-60
-58
59
-16
-8
55
23
12
-53
47
-3
31
-31
-25
-4
-11
27
-54
49
36
-24
-11
-11
51
-56
-16
61
5
9
-16
-22
-79
2
-85
-55
11
-67
-41
-37
45
16
29
18
101
103
23
39
58
-31
3
13
-71
-22
-71
-37
-20
40
70
-50
41
-61
-77
-4
-27
-26
-66
18
-1
-43
-19
43
-32
-51
23
-65
-5
24
-92
41
53
-36
1
36
0
-10
49
-10
44
30
-32
-61
11
-63
-24
-76
61
12
-63
21
-57
-66
-78
-20
-45
-80
35
67
60
22
-42
-25
12
2
27
37
1
-38
15
26
-25
37
-25
5
-32
-29
55
-31
-73
-13
-51
-44
-2
-64
-50
-48
-73
12
108
-10
23
55
-57
-61
63
-48
45
-90
-50
-10
-25
21
14
50
2
69
-33
6
13
83
-20
-6
75
-3
-68
50
39
46
33
-5
-32
-42
33
-31
-13
-64
37
108
-37
2
127
-5
49
16
-41
21
15
-12
-27
-30
13
22
34
-17
81
14
3
76
115
47
25
-27
-90
-4
-44
60
58
43
-30
7
35
25
33
16
26
71
33
-44
-69
53
39
1
59
-46
-77
30
-28
-31
-98
-22
29
-31
-56
-21
63
111
8
75
25
73
-16
-6
-11
-92
-49
10
17
61
-55
41
-39
52
-48
25
17
-25
-38
27
-60
-36
-8
14
21
53
61
-56
-31
-104
51
-1
-85
-52
-14
32
-34
-17
56
12
-22
24
-76
-34
3
74
19
111
-93
-127
82
33
-82
-9
-36
21
-83
42
15
60
64
69
13
29
37
-19
-109
-56
-43
-36
-66
-13
104
42
69
-12
-21
38
35
-80
31
86
62
-65
56
-26
-49
-19
-31
-121
-91
-49
58
87
16
79
3
45
-54
16
59
-18
57
-127
-44
78
-35
-46
-17
1
87
-105
-53
-8
-37
-53
41
62
-12
43
-30
-19
-55
45
-35
5
19
-14
86
17
-38
10
-97
-60
10
-26
-3
45
8
25
-10
30
-54
-119
12
-7
60
78
35
36
18
-68
1
94
-111
116
-32
-43
-89
41
-36
-15
-19
5
-85
81
56
18
-127
-16
80
44
52
35
-6
-59
-52
-8
12
-119
-2
-14
-14
-26
29
-45
-39
72
69
12
-21
74
52
49
8
62
-63
-80
-18
-53
-60
14
20
62
3
-35
2
46
40
39
-7
-47
-10
10
-22
60
-82
-17
64
-26
-30
-15
-77
-1
107
37
14
48
-21
-97
-103
-64
-77
-83
37
-87
-49
7
-13
39
-88
-87
8
3
27
36
-51
1
-37
2
2
-61
52
56
30
26
38
44
42
7
15
5
-29
28
48
60
41
-87
-77
-15
-76
-32
70
-54
-4
56
8
6
13
-1
34
47
-19
-24
22
11
-36
48
10
-32
-67
-71
-63
-87
-58
38
-13
0
-70
-58
-59
-13
-78
28
14
-4
-15
-31
-44
-44
30
-18
5
-29
20
-21
-58
-12
-31
-28
40
-8
-67
-31
-18
-12
-114
-32
-46
-110
-15
6
6
-20
15
-19
-4
9
0
9
0
8
7
-26
-10
-4
0
-7
14
7
-9
-8
16
8
-23
14
-10
-1
-9
-24
17
-22
-12
-5
17
-1
-21
-4
-12
-17
-1
9
18
-7
-23
-25
15
-7
2
12
3
-21
-28
-6
11
8
11
-1
-23
-23
0
-25
11
-15
15
4
-15
4
-5
8
5
-8
1
2
-3
4
-21
11
-16
-23
-10
-18
-20
-15
5
5
6
-25
4
6
10
13
17
-18
14
-18
-7
-1
-1
-9
15
13
-4
-21
6
9
-13
14
5
-6
3
20
18
-8
-20
17
15
11
-11
-23
-8
11
16
-9
11
-23
0
1
2
20
-21
-21
-22
21
-16
-18
10
3
11
-2
18
12
-1
-4
-16
-5
-7
-17
3
5
2
-1
-1
-10
-17
-20
5
-24
-11
16
0
-23
-17
-7
9
-5
-2
-21
-28
-18
-15
0
-9
-15
13
13
12
-14
10
20
-6
14
-17
-25
-9
-14
-16
-18
-12
-3
14
-22
-22
-14
-8
-24
-24
14
-19
14
-7
-1
17
-22
9
-19
-1
7
4
-11
13
5
-9
8
-17
9
-4
12
3
8
-22
-2
-25
-10
10
2
-18
-6
-5
16
9
0
-13
-21
0
-24
-24
-4
-13
20
0
-21
-28
3
10
8
11
3
11
-13
0
11
-26
-15
7
9
6
-2
-17
-13
-4
-20
-17
6
-13
-2
-22
-19
-28
-13
12
7
1
-6
-15
-11
-8
-15
7
0
-4
-23
-15
-26
-24
9
-8
-8
3
-3
-24
-4
-5
7
-11
-16
-4
-20
9
-13
-15
14
20
9
-20
-14
-11
10
-22
-22
-22
14
-11
-9
12
-16
-2
18
-22
13
16
4
16
-5
0
-6
-1
-3
-1
-6
-14
13
12
-19
10
-8
-21
-1
-2
-21
-23
9
8
11
11
-12
7
-4
-25
3
-3
2
0
10
-12
-10
-2
13
4
-14
-18
-16
4
6
6
-10
9
11
-1
-4
-2
9
6
-23
-17
16
4
-7
12
11
-8
-9
-26
-2
-10
18
-22
1
13
-15
-6
0
-15
-2
-18
0
-23
-20
-17
3
17
-1
17
-17
-22
-1
-8
-13
-3
-20
-3
-3
9
-1
8
-5
-10
-10
-13
13
-2
13
1
-1
-20
12
15
-12
-15
5
-13
-14
-13
17
5
3
3
-16
5
10
6
8
10
-24
17
2
5
20
20
17
-13
-27
-2
15
-23
4
-22
-7
7
-17
-14
4
-9
-2
-15
-6
2
-24
3
-8
10
-14
7
-5
-5
-12
16
-8
-25
-5
-20
-6
-10
-16
-28
-1
-13
-2
3
-23
15
13
-19
1
-6
-5
-12
-2
-14
8
15
7
-11
-7
-8
-2
19
-24
-26
-25
-11
0
-19
0
-15
11
-5
-7
-6
11
-11
-25
0
3
-16
-9
18
20
3
-13
18
-16
15
-14
13
14
10
-15
-17
9
-5
-11
-1
-2
16
0
-20
-10
2
-20
-9
-15
-5
11
2
1
-12
3
17
-5
-14
10
13
-20
6
-21
5
-14
15
10
7
8
-20
-21
-24
4
7
-20
-4
2
6
-2
-25
-3
18
8
8
-14
-9
-11
-18
-2
14
-11
-6
2
3
-18
-13
1
14
-20
-23
7
-2
-12
-16
11
15
-2
14
-18
0
-4
6
9
-7
-12
4
5
2
-22
10
1
-12
-10
-2
4
-9
14
2
14
-15
11
-8
17
-3
-28
16
-4
13
-8
4
4
6
8
-26
-11
-15
13
-12
18
-10
16
15
-9
-16
-8
-5
-21
-16
-21
-27
-18
2
-18
13
11
-21
9
-6
8
-13
-7
-3
7
9
-20
-9
15
-7
16
5
-23
-13
-22
18
-15
-24
-21
-13
-16
-26
7
11
-8
7
16
-23
-3
15
1
-11
-24
-10
-22
3
-10
-14
15
21
15
-21
-13
-22
10
-2
20
-4
-8
-2
18
-11
17
-14
-16
-22
12
-4
4
-5
-11
-21
-23
-10
-6
11
-9
3
-18
10
14
12
3
6
-2
-20
15
-10
-14
-1
-1
-17
2
-12
-22
-23
12
9
15
7
-22
-23
-22
-3
-14
-14
20
0
2
14
0
-12
13
-8
9
11
16
-16
9
-25
4
0
-1
12
3
-19
-26
-5
-12
1
-2
4
-11
8
6
-24
-24
16
-8
10
-20
4
-23
-8
-6
-4
-28
2
-14
5
-12
-17
-22
9
9
-6
6
2
13
-9
-6
-20
5
-16
0
-11
-9
11
19
2
-10
-13
-1
-21
3
-20
19
3
2
9
-16
-5
-13
4
-1
-14
17
-20
-29
-2
17
10
-9
13
-7
14
18
2
-8
-15
-16
13
15
7
19
12
-12
20
12
2
-5
-2
-10
-21
-4
6
-10
17
8
-16
14
12
11
17
13
-1
-26
-13
-1
2
-4
7
-19
1
-16
-11
-6
14
-15
3
-15
-21
-11
9
7
-17
7
6
-27
-15
-11
13
-13
11
1
-23
15
-9
-14
-11
7
15
-8
-13
-21
-13
2
-13
13
15
0
-2
4
-25
-5
8
-9
-23
-3
12
-21
-18
8
21
-4
4
-7
6
10
3
-5
-16
-7
3
-27
-8
-9
1
-21
-15
6
14
6
-19
10
-5
14
-17
-18
-11
-23
19
-20
-15
11
17
-22
19
-24
-4
-22
-13
-4
-16
3
13
-9
0
7
2
-8
-9
-18
-4
-10
-28
8
-20
13
11
9
-22
-11
-24
10
-28
-12
-24
-19
-2
-16
3
11
-27
-2
-23
15
18
-14
-8
-2
-9
-4
5
-10
-5
-3
-3
1
-20
18
-4
-2
-11
-4
-16
-12
-17
-18
-19
13
9
-16
21
6
-12
-26
-1
17
6
-26
16
-4
-18
17
-16
-2
1
-6
-10
-23
10
-8
-18
4
1
-6
-1
-15
16
-20
-13
7
13
-22
3
6
-15
18
-8
17
15
-20
-14
-5
1
10
-24
-26
-4
1
-1
-17
16
-21
7
-20
15
15
-13
8
0
-16
-12
17
-24
6
7
-28
14
17
15
0
-4
-14
16
17
-23
18
11
6
11
6
16
-16
-26
-27
2
-21
8
-27
9
-11
-23
-8
8
17
9
-10
2
-4
-15
-2
16
-27
-17
9
-8
-16
-23
1
-18
20
-9
0
-3
-12
-6
-3
-3
-1
-7
12
2
-11
-20
16
-17
-14
-2
5
12
-3
-10
2
8
-19
-5
10
-18
16
-18
-24
-19
-19
-19
-9
2
-1
0
-14
-15
17
-8
-6
-5
2
14
-22
12
14
-25
12
-15
-4
-3
-20
-17
7
-12
-9
-5
-6
-17
-17
11
-7
-24
18
-22
11
9
-15
16
12
10
-27
-4
5
-8
-24
13
-19
4
-10
-17
9
-3
-16
4
-7
12
15
-18
3
-26
-6
-16
-7
8
16
16
-7
15
-2
-3
2
18
-21
7
7
10
-19
18
-26
-11
-16
12
6
-27
12
17
-4
-3
-4
7
16
-14
-14
11
-21
-17
-9
11
4
16
-15
-2
-4
-24
-5
8
6
-11
-25
3
7
5
5
-28
-2
-11
-5
-3
-11
18
3
-5
-1
-9
7
13
-17
-5
-5
0
-8
-1
-7
-4
-3
-19
15
-21
-24
-6
1
11
19
-11
-2
12
-17
8
19
18
-17
13
0
10
-1
6
20
10
-2
3
21
8
-6
-26
7
2
-2
7
-12
-16
-16
-26
-12
10
-24
-5
16
-6
10
-5
2
-16
-8
-2
0
-15
-5
-4
17
22
-16
-5
14
2
15
-18
-28
0
13
9
-7
5
15
15
-17
-3
-26
5
-23
-3
15
-17
-12
15
8
-5
-21
7
-10
-17
-20
7
-20
-6
20
4
8
1
-27
-14
3
9
-9
-8
-17
-6
-10
0
10
-1
16
6
-9
11
-17
3
-19
-23
-8
-20
11
8
-3
3
-14
-23
19
4
-17
7
-18
-9
-15
-9
-28
9
9
-5
-6
-5
5
-22
-9
-9
-25
6
-17
-21
-17
3
-7
13
-18
-4
-19
-11
7
-20
14
10
12
-9
16
-3
5
-20
-20
-22
4
-4
-20
-12
7
5
12
-14
-20
-26
-3
-2
15
1
-1
-25
7
-13
-8
-20
7
-28
0
16
2
-9
0
0
3
-17
14
7
-8
-21
5
9
-14
-4
-13
-17
-19
-4
-5
-23
-22
1
17
8
-7
15
6
-7
6
8
-17
3
11
15
7
12
0
-13
7
-23
21
-27
9
5
18
-4
19
-11
-16
-18
-9
-8
-13
15
-25
7
16
16
-10
14
6
-19
-21
9
-1
-9
-2
-23
15
20
20
-1
-3
-18
-25
-2
3
15
12
5
-13
-1
-23
-20
6
-25
15
-21
-19
4
10
-23
-49
-4
-64
24
-13
-35
-5
9
11
-13
9
23
-36
52
36
-22
-45
-6
51
-23
-49
-26
62
19
34
4
-33
38
-22
-5
3
5
20
24
13
-18
-17
-6
28
14
51
5
17
51
-8
30
-20
-39
-38
-59
-18
1
4
-6
25
37
78
-58
-9
75
9
-12
68
-37
-54
-61
-64
27
0
40
-7
42
11
-37
53
14
-8
-23
19
-20
-33
37
-21
-5
-23
73
47
33
37
-20
29
6
-52
-5
62
0
-40
41
5
37
-20
19
24
-54
36
-21
-42
26
-6
-22
5
22
-34
6
5
-9
-19
-2
-10
-16
-20
24
-26
-56
-8
27
18
-24
21
11
-59
17
55
-3
-8
-11
-12
-8
-14
-16
0
-29
33
-11
-61
-88
-22
76
-25
-24
-35
-11
-15
18
-30
52
7
-32
12
23
36
45
20
18
-39
-50
-12
15
82
10
-32
-8
-6
32
-1
27
2
24
22
-5
-30
-30
-48
46
31
-3
-26
-19
-10
36
-3
16
-13
56
6
-56
1
-16
32
33
4
38
30
45
24
25
-6
-43
-65
64
23
-34
-11
42
-4
5
18
-35
-6
44
-12
-1
20
-50
-46
-30
15
-3
50
53
-9
-14
-20
-74
-18
45
-7
10
5
-2
2
-13
16
5
41
27
37
32
35
-14
33
15
-29
-76
-37
-6
11
5
-1
49
17
27
56
-26
-14
9
8
-24
-21
-27
27
11
1
-44
-31
40
50
-30
38
34
4
22
-26
-35
-47
-34
16
14
4
-6
-18
1
-13
12
-11
3
18
20
5
16
-16
-12
-14
31
-27
-20
16
49
32
-21
-67
4
-36
16
20
10
19
38
6
6
-24
32
58
4
31
13
-2
17
22
21
30
37
26
19
-9
33
8
35
3
-31
-27
-11
-4
33
63
21
-64
55
12
38
29
11
5
55
-11
6
50
34
16
37
27
7
-23
-39
2
69
-13
-26
-19
42
-3
14
-3
9
-7
24
67
-29
-42
45
0
20
9
-95
-31
47
-20
29
50
39
13
12
23
-37
34
73
-36
6
-25
-1
6
10
10
50
67
-31
45
10
49
-22
-3
39
-52
-42
-4
21
12
14
-8
101
29
12
36
26
42
-28
33
13
32
-38
10
-65
14
-16
-31
21
59
34
-7
8
-7
-16
-5
15
32
-7
20
12
59
-27
29
21
60
51
-7
24
21
33
-41
20
-42
-39
-12
3
20
-65
3
-25
78
-35
-12
-8
-39
47
59
10
27
23
30
-42
-46
44
-48
9
38
7
26
-30
32
-12
24
47
-18
29
-21
34
-37
16
-54
-19
23
16
-36
42
-2
23
11
46
25
-12
17
59
-36
17
-45
-62
-26
41
1
28
42
21
-49
9
23
-13
-16
-1
-30
23
-35
-42
8
-12
-49
34
13
3
-28
85
-1
17
-7
4
-54
41
21
40
-15
1
-29
55
5
-32
1
63
-46
-16
31
-18
24
50
1
33
-18
48
24
6
-50
-33
41
39
-15
43
-5
14
33
21
-6
25
13
2
62
28
-8
-27
15
14
-33
85
13
-67
-29
26
8
53
14
127
18
-18
-32
-9
2
28
14
1
-44
21
49
-14
-20
-1
16
-8
-2
-1
-68
8
8
-2
-20
52
-1
15
-14
-35
10
-6
35
-8
17
9
-33
47
15
-23
-6
-57
-9
-42
52
83
-40
-33
53
28
-9
8
-17
-31
17
8
-7
72
-79
-1
-16
34
-26
17
19
26
-13
31
-14
-14
28
38
-18
-23
-43
35
45
31
6
-27
19
-40
-25
14
33
-37
-30
-17
32
0
-51
-11
-22
10
-3
-19
-5
-87
-62
-8
-65
-17
-28
40
12
2
-50
39
9
-42
13
105
-25
-3
6
-27
40
4
68
22
7
0
16
16
39
-28
-9
-43
-1
-17
34
15
73
26
49
-54
40
4
47
-20
4
46
-9
-31
4
1
-6
-14
-45
12
18
31
19
4
-4
-2
33
39
-7
-79
13
-48
-27
18
-64
-3
20
-17
-10
19
-23
36
0
-45
-19
22
-31
-5
25
-5
23
35
-10
29
-24
-10
-37
-1
-16
34
32
51
47
21
17
-1
-8
16
-17
50
0
33
3
-3
5
61
18
30
-20
21
-15
-30
19
11
-48
17
-12
-3
-104
-2
1
53
31
-11
-5
15
23
-6
-17
26
-21
23
-13
12
5
-67
14
-4
29
80
31
57
25
-74
-34
-7
-2
-14
13
-44
-7
38
-12
-14
-33
16
-1
-14
-26
-52
50
14
15
-43
-5
-20
-11
25
22
6
-36
43
-53
-44
-45
36
44
26
0
19
-14
-60
-37
57
63
6
-23
6
-43
-56
1
40
-3
0
-18
17
-25
39
-6
-2
20
-7
-34
-42
2
-15
-34
4
-40
-13
65
-30
-22
-32
-19
9
-13
18
28
-61
-59
-6
30
1
53
-19
3
38
-32
-51
-10
47
-26
40
-37
16
28
62
10
-9
-34
49
-14
-1
-20
52
-61
-20
-25
-12
56
5
70
54
-1
-21
2
42
-34
11
18
41
-8
-31
-10
-34
12
7
-2
-10
13
-47
-44
14
30
22
12
29
-76
21
44
31
-4
27
4
-49
-45
14
-13
58
1
-48
37
53
22
12
83
-13
60
-52
-19
-12
43
21
38
27
10
-35
9
21
-34
31
-3
-78
-75
-21
-38
-44
-36
-33
-74
3
-7
36
29
22
49
-26
-3
-15
-31
23
-29
-43
-9
13
38
-33
50
63
38
6
-43
-3
6
-9
-53
38
-32
-56
-49
3
-36
-25
47
32
51
-4
-33
-23
-31
-48
-22
13
8
-41
-23
-5
51
32
66
5
-1
12
1
-20
75
32
-6
7
-17
-4
-41
-13
29
-15
14
-49
17
-46
-18
30
14
74
20
4
-25
87
-1
-30
-52
12
23
-30
-6
9
-25
18
-9
21
56
-28
-52
32
2
-4
-4
26
11
6
7
32
-6
16
22
15
25
15
15
20
37
-11
-2
53
43
-45
11
11
-46
-3
25
-4
-10
-3
16
19
41
9
-36
17
36
-50
-28
15
-49
-15
15
30
2
-17
-19
5
32
-14
-16
-25
-16
1
39
42
-4
-22
20
-9
-76
-15
-3
-38
18
-34
-58
-21
-11
-30
44
-9
3
-33
10
-22
-27
-29
-10
-36
-13
-14
-27
-38
81
-57
-31
10
34
-77
20
-22
-26
-1
-56
4
-13
-18
-25
14
32
-6
30
3
8
-15
-10
-12
25
13
10
-28
-15
-16
38
11
19
-47
12
22
12
-10
34
-22
-37
21
17
7
6
-3
26
11
19
-8
-25
31
-11
14
70
48
48
-7
13
57
16
5
-31
36
30
-20
7
-84
-30
-11
-21
-4
-18
-26
-9
4
-9
-28
-2
-43
37
8
-21
17
-6
-20
46
28
20
-1
5
8
22
-21
-8
1
5
-42
3
15
11
-2
-12
-14
39
37
-63
23
18
-4
-40
-16
-12
-33
-63
30
-32
17
2
17
-6
56
-52
1
-2
-8
-47
-23
-8
-39
29
9
-40
-28
-69
-3
-3
-1
-27
-24
-5
15
-26
-19
22
16
2
28
-10
-61
-25
9
-19
25
37
-4
18
27
27
-22
9
-1
-6
-42
-25
-43
-12
-30
-2
41
40
10
6
-36
-33
-34
50
-12
-9
3
15
-9
71
-19
-63
1
-27
3
11
-7
-5
21
50
-43
-1
-1
53
18
12
-46
-18
0
-65
14
33
-16
-57
34
-29
-29
-4
12
28
33
6
-19
-1
41
11
-13
-32
-42
7
4
-41
-25
35
39
19
11
-9
0
6
-46
10
-1
6
-46
-35
-8
-61
6
28
-41
-9
-9
-44
61
8
-18
-55
11
52
19
22
-30
-4
-22
-4
-20
-35
-5
12
19
-6
-29
-26
8
24
-25
-11
-33
-30
-17
34
17
4
10
21
6
-10
-10
5
-12
70
-54
1
23
-6
10
3
14
-24
-27
7
57
-15
-55
-37
-14
3
-44
23
21
6
12
38
17
-32
-11
-3
27
-6
12
-12
-27
20
41
15
24
8
6
-18
23
-14
-15
35
-29
-24
56
15
81
-11
33
27
-27
11
35
-17
21
26
-19
50
22
-15
19
53
62
-24
-38
-2
-12
-23
-19
-2
16
28
-19
14
-24
14
64
31
6
-32
-38
-55
-15
-21
-69
-23
-1
35
23
37
-61
7
-40
-14
-14
-68
-39
23
-26
4
17
26
42
12
24
27
-17
18
10
-26
16
12
-10
-29
56
-1
-19
53
-62
-4
17
51
51
27
6
-15
31
22
-3
-28
49
-6
-43
50
-35
9
21
14
-10
-4
58
21
11
-60
-47
-48
26
45
-46
25
16
-4
44
-58
-28
-46
18
2
-19
-48
-42
-50
29
9
-53
-7
8
49
23
37
70
-2
38
19
15
-18
-15
-59
24
16
-60
11
-7
-33
-36
66
56
68
-30
-2
-30
9
2
-30
12
-27
-7
29
49
-16
-3
32
27
28
14
23
-52
-20
-9
-14
1
-29
-2
33
-5
-62
-15
56
-22
21
-1
-8
24
-19
45
-45
25
3
-9
-47
11
-11
15
19
-1
10
6
-22
22
11
-2
-16
20
-1
58
-37
15
17
66
-1
-9
33
-38
-53
-6
10
7
-18
75
-6
-25
30
-7
-23
10
34
59
13
-83
-33
-19
3
22
-4
7
-4
-11
14
12
-7
-16
-14
9
-45
23
31
-22
7
27
-42
-9
82
50
1
-44
13
27
4
-20
-40
32
10
5
28
-29
-24
3
32
57
5
-10
20
-17
60
-32
-23
50
27
-12
2
12
27
16
-14
-17
2
5
24
44
82
-29
-15
54
24
-50
12
6
25
32
18
-16
21
49
-16
-9
70
-6
-11
33
-28
-21
-23
-8
6
11
13
-38
-3
18
19
0
47
16
-11
-21
-31
-61
-14
-5
-26
33
-28
3
30
85
19
33
17
5
43
-15
-28
9
-34
28
2
-21
-1
55
17
-19
-8
-3
3
77
35
-12
-67
47
5
0
9
-43
25
40
45
10
-9
-33
28
51
14
20
2
-22
40
4
-26
-9
26
17
11
12
-7
-11
3
17
-15
-69
-26
-5
42
10
65
-12
-4
-22
21
-90
-20
17
73
28
-65
-14
14
-88
-18
23
-3
-18
-12
-5
-12
8
-4
-18
-25
-40
-17
68
67
6
-15
-18
-72
-16
59
-50
-8
3
-30
-29
10
-34
15
15
-14
-26
-4
-33
11
-4
19
31
14
-30
25
-11
16
19
4
-14
5
11
5
-19
-91
11
16
-48
13
1
27
41
14
-62
-1
26
-11
5
7
-21
-26
12
-20
-92
15
-7
32
37
14
26
-3
-39
-56
5
-17
21
-19
23
25
-23
31
64
15
3
3
-13
-3
-72
-22
-14
-9
-23
-36
-5
-32
44
-11
58
-2
37
-54
56
0
-7
-43
-15
15
-21
23
-47
8
25
-7
26
13
0
-38
23
20
-14
-19
-35
56
8
3
5
60
-9
24
34
-25
25
3
47
0
6
-63
22
13
5
3
-15
-40
-27
6
3
-15
41
49
-17
52
7
-34
16
-13
17
2
0
-42
-43
19
12
17
-9
-5
-20
42
31
29
3
16
-7
1
-3
-9
-23
-32
36
1
-15
38
20
15
39
43
-31
3
8
-11
-2
23
8
-6
17
32
3
67
11
18
11
49
28
27
-20
-12
23
8
-28
21
-29
29
-19
73
-40
10
-16
-23
-4
0
-40
-1
13
7
-48
-3
41
-21
12
-19
4
25
-13
19
7
-20
11
56
11
2
-8
-19
26
-3
-5
-21
12
2
-9
-6
13
-75
-22
4
-15
9
30
31
-34
7
44
41
7
10
-9
11
-60
-5
-15
6
-5
2
-34
-2
24
55
-25
-42
46
62
-32
-16
49
-1
-11
52
-10
16
-14
11
-5
-7
2
-8
15
-9
-12
-17
-20
-7
39
41
0
29
41
-10
20
15
20
-48
-37
44
21
-2
-24
31
13
32
26
-36
-3
-1
-55
50
35
43
-49
33
-23
-9
21
12
-33
-32
10
-51
-49
-4
36
31
-22
-51
-44
-9
8
19
18
32
27
-17
26
8
20
-4
18
19
33
33
26
18
9
13
18
19
27
15
55
70
3
8
-14
65
-12
-7
-7
-45
-91
28
-5
-25
45
-6
1
-44
-17
-20
41
1
-39
-12
54
1
12
39
37
-31
34
-82
-19
-81
56
-23
53
-23
-2
8
-6
44
24
-1
-13
15
44
28
1
12
8
-10
-34
51
-14
16
-53
5
18
12
-24
18
-4
60
6
-3
-1
18
14
54
-11
10
15
29
-37
59
-16
-3
42
-4
-20
-9
-30
-6
-25
-20
9
35
-12
-12
-29
-26
-10
-31
3
-12
36
42
-23
-10
10
28
15
-4
-54
-32
-38
34
33
22
25
-12
27
19
-16
3
-17
54
18
16
-39
-4
10
-30
-19
30
-17
-11
-8
18
-25
27
-44
18
49
-20
15
-9
-74
-10
-31
18
28
-9
-5
-16
30
4
38
2
-28
6
-19
-10
-13
10
12
8
24
-53
-24
-7
-3
-7
61
28
-23
-24
2
9
-81
31
-10
19
-73
-23
-8
30
-27
32
30
8
-10
-38
24
7
-31
51
59
2
-42
31
30
31
15
24
-33
-23
-6
-7
34
-9
77
-21
42
15
-18
1
22
-30
-31
24
35
40
12
-8
-20
-42
-9
86
4
11
4
-33
13
-16
-61
11
42
-2
-5
17
1
39
27
17
-76
-27
26
20
14
23
2
-20
-47
4
21
1
-30
-9
30
-43
-32
-5
54
9
11
28
-7
0
-29
36
2
-9
-5
7
-15
20
-17
22
34
15
7
-28
-4
26
-5
19
9
-16
1
33
-15
-3
24
40
-12
23
-33
4
46
6
-53
-10
-16
-83
-10
-2
86
18
43
-12
-27
-48
-30
-40
24
27
-11
10
-31
20
20
25
21
3
6
11
30
48
8
20
-42
-39
-18
3
46
13
-25
36
-53
17
39
43
-14
-26
39
-78
-80
-22
-41
4
32
-36
11
18
-39
39
40
48
11
32
27
-41
-15
-1
-59
-6
-9
8
41
30
-33
21
54
-5
47
-41
-25
-60
9
15
-31
23
-3
-53
-27
7
13
47
36
33
-2
-34
24
1
9
-40
34
-34
-15
-4
-58
-20
6
17
-57
16
10
58
35
-17
13
-1
1
19
-7
-3
-8
-24
26
22
3
-19
24
-32
-11
17
-1
-6
-4
28
1
-40
-52
11
-20
5
-42
3
-34
-7
0
-59
6
21
-49
15
-8
-4
41
14
4
-15
-20
-21
-32
21
17
-27
15
42
-23
14
59
-31
-14
20
17
-4
-17
-26
2
32
33
-56
-12
-3
-38
-8
27
-26
10
-5
24
15
13
-12
28
45
22
-12
16
-22
15
-24
25
19
44
-28
15
28
13
28
-6
31
35
-71
27
18
3
-6
60
5
12
23
-6
67
1
26
1
-2
-8
-64
-6
-28
6
5
5
10
25
-5
21
25
43
15
-2
-25
-2
-7
48
-8
-35
5
16
-18
39
28
35
0
26
19
14
-70
3
-57
1
-18
20
7
22
-41
-50
-35
12
8
-9
-32
-32
3
-12
7
16
4
78
28
0
40
-5
-9
23
27
6
52
18
-21
34
-23
-36
-12
-36
18
-39
-40
4
-8
-18
-37
13
-6
-3
-25
-24
-32
-20
14
-3
-1
16
-23
-20
-18
-59
19
-18
-11
-41
-25
36
-9
8
42
7
-8
4
-16
5
1
-10
49
18
30
31
0
41
-22
-4
-14
-50
17
18
59
1
0
-2
18
12
-14
-1
7
50
-12
2
7
-39
11
68
20
-1
-2
-43
-26
29
-12
-10
-30
37
-10
-4
37
36
43
17
53
39
-7
-30
-6
11
-3
24
20
31
-5
1
25
18
8
29
-28
30
73
-36
12
24
-33
30
-30
-5
-16
7
6
41
-7
19
-1
43
-9
-6
60
-18
3
11
49
-3
-20
61
-8
-29
-7
-1
-37
25
20
-7
-3
21
32
36
0
25
0
43
-47
-37
-12
-13
15
15
-16
26
-8
13
-14
34
33
36
55
11
17
6
-13
-26
33
-9
11
-7
37
-13
-12
-17
-73
-16
-4
16
40
13
47
7
-3
-15
58
-5
20
31
6
24
-11
22
19
9
8
-13
0
32
-2
-4
2
39
-11
13
-30
63
-14
14
4
-21
24
-26
-16
43
-12
-6
47
55
22
58
-7
37
-49
19
19
-32
-5
-10
41
21
-8
13
16
-26
16
-1
-5
-5
-36
-9
-12
-3
17
9
10
-5
-12
25
55
-37
-54
-31
33
11
-2
36
-8
-41
28
-19
4
-22
-59
8
37
-29
-59
-31
-6
15
17
-30
44
27
20
14
-5
-1
4
30
30
-5
-35
30
40
12
36
26
-5
30
6
-28
-17
-24
-60
60
-19
13
-17
17
73
14
-15
-2
-41
2
-21
-36
-5
-10
-44
31
-28
-2
18
-18
4
11
29
-35
22
-1
-33
68
17
22
73
43
34
-14
27
38
29
-16
-15
17
-5
-49
38
-61
-11
23
6
21
-8
67
14
-24
-36
-51
-59
31
26
-56
39
-10
-5
6
-17
-45
-54
47
-10
-16
-36
-19
-39
-5
-17
-33
29
13
46
55
55
76
-18
8
-9
31
-19
-14
-49
43
11
-50
-8
-3
-15
-7
48
69
54
-17
28
5
28
-33
-10
0
-11
-6
26
24
-7
-3
48
3
40
9
-12
-47
-15
17
-24
31
-17
17
44
0
-55
23
67
-12
10
-23
-2
5
-24
39
-34
-2
29
14
-14
18
12
-1
19
-18
14
-3
-52
5
6
38
33
-17
2
42
-17
-24
-4
39
-2
-21
31
-10
-62
16
39
11
-7
70
8
17
36
-5
-34
29
31
28
29
-58
-18
-24
24
39
-9
-29
36
-5
43
17
20
-16
8
-25
-38
24
34
-33
-14
21
-48
9
53
10
13
-38
26
33
-12
-49
0
50
26
-16
17
-20
-26
3
61
41
31
-6
16
9
53
-42
-18
74
35
13
1
4
14
-2
2
-22
-24
27
7
38
45
-19
-33
41
5
-48
13
-12
-2
64
31
-23
3
65
-3
8
60
11
2
13
-22
-31
-7
-13
6
9
38
-46
-7
42
4
18
39
15
12
9
8
-22
5
17
15
29
-5
-5
29
92
48
4
1
-23
48
-2
-32
1
-41
46
17
-26
19
54
-10
9
9
-22
-11
40
21
-2
-54
48
9
7
-13
-23
33
41
29
12
-4
-6
0
42
5
46
-19
4
42
29
5
1
33
-19
-4
4
29
19
22
9
24
-30
-5
-1
65
6
49
-31
-21
9
25
-86
-21
-8
43
19
-42
-22
9
-45
16
11
-23
4
-2
-8
0
8
20
11
-32
-6
-32
64
51
48
14
-21
-42
22
63
-51
1
-3
-1
-32
-12
-10
-20
41
-44
-3
19
-36
27
-6
52
16
26
-26
22
-11
6
6
-7
25
-8
-11
20
-49
-79
-4
16
-34
14
34
53
22
40
-58
10
12
-27
11
-12
-42
-54
13
-16
-95
19
34
10
52
13
28
0
-22
-62
27
4
-1
-32
3
8
-44
34
78
45
-37
-34
10
5
-74
-28
-16
-33
-28
-23
-16
-25
-1
10
71
6
-1
-63
9
16
9
-52
-21
14
-3
30
-51
45
27
-5
51
-2
-18
-21
8
-13
-29
-45
-24
44
-1
12
-13
29
-29
18
81
-7
-10
3
49
20
23
-86
16
10
23
2
-13
-31
-30
33
-13
-12
61
37
-30
30
33
-2
22
0
-15
-10
4
-34
-52
-23
21
37
-15
31
8
32
4
46
-7
51
-38
-21
2
-37
-35
-5
7
7
-5
22
-16
9
74
33
-22
23
5
11
-19
58
4
7
1
31
-29
45
-7
34
27
55
2
61
22
14
16
9
-64
-9
-19
13
-3
53
-61
-1
-44
6
-12
11
-34
-3
33
9
-65
22
41
7
33
-58
-7
4
-14
7
-14
-20
20
79
34
15
-27
-17
4
19
2
-27
35
14
-27
-23
22
-78
16
33
-8
24
-1
23
-32
23
16
62
7
1
-9
-7
-88
-18
5
2
-36
17
-20
-3
35
32
-34
-20
29
50
2
-45
35
21
-16
55
-22
19
-21
14
-33
10
-11
-20
28
13
9
-20
12
26
11
13
23
5
82
-3
39
-3
12
-19
-33
45
56
16
5
50
-12
18
36
-4
7
16
-29
74
18
28
-25
68
-21
-4
24
6
10
-14
-12
-46
-73
2
23
63
-25
-46
-28
5
11
1
16
-5
4
2
25
47
45
-26
22
74
5
37
13
7
-8
14
13
63
32
46
37
36
5
19
-2
58
7
31
-11
-14
-116
31
-22
-61
18
-8
-17
-16
9
-20
37
-15
-6
-22
47
-1
25
56
8
-54
1
-60
-13
-73
37
-20
33
4
8
3
-18
42
8
26
-17
3
10
41
-3
16
-20
17
-7
48
3
0
-45
26
56
30
12
52
23
59
-16
-17
-4
20
34
44
-44
17
15
39
-27
65
-34
-26
11
-30
-20
23
-4
-20
-14
-7
5
21
-26
-20
-19
-34
3
-21
26
-24
17
25
-48
-7
13
45
15
7
-18
-18
9
18
5
15
55
23
-10
42
6
14
-11
59
21
10
-45
-2
-7
-18
-28
5
-32
-27
-28
-12
-38
5
-49
22
22
-3
-6
-3
-50
9
-17
22
49
6
-33
-22
9
-8
42
-10
-27
36
-15
7
-42
28
14
31
16
-24
-15
0
3
26
57
24
-4
-21
20
-7
-66
49
32
-1
-65
-50
-26
41
-32
38
55
24
-23
-29
4
-16
-6
43
35
18
-30
22
8
39
-11
23
-15
-34
-22
-28
28
5
57
-9
34
-13
11
-4
39
-38
-51
12
56
23
4
-23
-34
-32
6
72
-18
-6
8
-71
-17
20
-49
-4
55
28
-11
9
-10
38
16
16
-72
1
38
22
-17
6
-8
-30
-48
42
37
34
-10
-17
6
-28
-13
-15
57
18
-6
26
16
8
-36
51
38
14
22
-5
-4
30
9
5
25
26
-10
-20
12
1
31
42
21
26
-17
34
-20
29
53
39
-5
28
-5
-13
21
1
-28
27
-13
-68
30
11
63
20
21
-35
-18
-42
-21
2
37
-3
13
11
-24
-9
27
58
45
37
22
-16
46
66
3
44
-41
-41
-7
-24
13
14
-27
15
-16
-4
55
21
-13
-33
39
-76
-66
-48
-49
29
8
-29
-10
26
-61
-8
54
11
29
9
24
-16
-33
-23
-32
14
14
43
39
5
-17
-18
48
-11
12
-30
-36
-49
-19
-19
-55
-2
-3
-80
-28
1
-4
13
57
22
19
-24
0
1
49
-41
49
-12
-28
-27
-29
-2
28
32
-33
10
34
44
3
13
29
-40
-25
0
6
13
24
-3
29
34
-23
-15
15
-15
-7
10
-21
-7
7
42
-38
-16
-33
13
-31
-24
-16
-33
-44
-8
-39
-19
-10
9
-31
41
-12
-20
18
41
7
-16
-17
-14
-27
8
-13
-16
45
16
-48
44
61
-36
4
29
30
0
4
8
26
36
34
-35
-22
-21
-52
-9
9
2
9
19
-2
52
21
6
39
65
29
0
2
17
-10
-18
18
-6
50
8
8
49
40
44
32
10
48
-83
20
19
3
-15
60
-18
15
43
-27
59
2
16
-11
20
-3
-35
-3
-1
-19
7
-12
12
10
3
-22
29
44
32
21
-42
10
-4
11
-1
-37
-5
5
-39
27
24
17
7
25
18
32
-74
13
-29
36
2
37
18
2
-62
-41
-32
1
46
-21
-26
-26
42
-25
-9
45
-4
90
45
13
43
33
-5
29
35
9
42
3
-26
29
-29
-3
25
-39
11
-18
-11
-9
12
7
-38
18
-1
-23
-21
-10
-1
-2
15
-16
-24
28
6
-6
-36
-24
5
-12
-1
-26
-13
28
-32
27
30
9
22
9
19
14
25
-6
56
21
26
5
30
39
-16
16
-24
-44
50
29
38
23
-13
-14
38
22
14
15
-1
58
-24
-3
6
-19
4
64
10
4
22
3
12
35
-43
-39
-23
40
-13
18
41
40
21
37
36
39
7
-30
-5
-10
3
9
10
19
-32
29
9
2
-16
13
-66
16
59
-35
-1
17
-31
23
-43
7
-56
38
-10
7
6
22
7
6
-6
-2
39
-27
-5
9
60
5
8
47
-5
-12
9
-3
-68
27
-7
-9
2
2
54
19
6
0
9
25
-21
-30
23
16
24
18
-23
44
29
13
11
11
30
-11
53
-1
16
-9
-19
10
31
-8
11
30
50
2
-21
-7
-68
-24
3
20
47
-19
33
26
9
-17
53
43
36
9
-21
41
22
-1
5
4
-12
-2
1
10
5
-21
14
15
29
13
-47
56
-14
36
-5
2
6
-1
7
46
23
-11
26
82
21
31
-3
58
-35
23
48
-12
-4
-3
41
41
-7
-20
21
-5
-30
36
0
11
-49
-22
16
5
46
-16
12
5
-35
23
50
-30
-40
-22
25
6
1
29
-3
-51
44
8
7
-8
-52
-10
33
-30
-73
-25
15
0
16
-14
27
3
-7
-17
34
5
-8
33
60
-19
-63
10
33
27
31
-1
18
61
47
-6
-40
-18
-58
67
17
11
10
19
67
37
12
6
5
13
-7
-44
-26
-33
-7
-5
-25
-24
21
-20
9
34
14
-31
6
-10
-62
62
-9
-12
-38
-17
-33
4
-16
-57
-36
9
18
-46
10
27
-8
49
4
-13
-28
-24
6
-41
5
-13
26
10
28
-34
-25
69
-23
-18
-29
-10
46
12
44
-12
-9
45
19
34
47
-7
11
45
-6
3
-30
-29
-77
-101
12
19
-19
-13
-14
33
46
-22
-35
59
-10
-30
20
30
-60
-23
-19
43
6
44
-14
15
22
10
31
13
-36
-31
26
-23
-26
0
15
-6
-17
73
46
-2
45
6
22
20
-36
-29
67
-41
-48
35
7
16
-7
12
31
-46
41
-30
-33
36
28
-30
22
-46
-49
17
21
3
21
-11
3
-38
-25
-7
3
-57
29
-6
-6
-50
17
48
-10
23
74
32
-33
-17
11
-61
25
1
-11
-4
9
3
-26
-31
-13
78
21
17
-28
-41
1
-4
-11
44
-28
5
24
38
48
37
23
-23
-50
-16
6
-10
73
-11
-39
-2
1
79
-15
8
32
71
23
-26
-11
3
-43
57
11
-5
-36
-39
4
33
15
-1
-11
37
37
-13
-16
24
21
22
24
-26
20
24
19
11
-26
-15
-68
46
-13
-38
29
5
-5
35
37
-44
-2
55
-1
-52
19
-19
-56
-24
-10
6
32
45
-16
22
17
-23
10
42
2
-9
2
-28
-42
-2
6
-5
16
56
12
37
17
-29
30
45
-22
-95
-37
-66
-36
9
-21
12
29
-2
42
-39
-13
-7
32
5
-20
10
11
-12
14
-76
-11
8
58
-67
-24
9
-7
30
0
-44
-35
19
-10
34
39
-38
-1
-16
39
33
-27
0
14
1
-46
-21
-18
11
-2
27
4
-23
11
57
52
-18
-63
0
-54
29
38
-7
-9
78
3
16
-35
14
41
-23
-16
35
17
4
30
3
3
24
1
37
-28
8
18
13
39
-31
-45
-38
-15
68
61
18
-63
73
4
31
35
-8
29
39
9
-8
57
48
14
13
16
2
-21
2
-16
75
-6
0
-4
38
-15
-6
24
47
21
64
119
-15
-11
53
-27
12
-49
-59
-35
31
-17
27
30
19
-5
3
51
-12
-3
69
1
-30
-20
-58
-6
-6
-24
40
81
-13
27
21
8
-30
12
30
-22
-71
-25
13
6
-10
-19
75
52
-12
36
21
42
-37
-3
-10
8
-51
1
-22
49
-26
-26
22
64
-15
-1
14
-6
18
-43
17
20
-43
11
-12
14
-53
-5
2
12
45
-20
-8
39
25
-32
24
-53
-36
30
22
11
-35
-12
8
30
-3
-14
-6
33
40
37
8
-40
5
29
-7
-36
33
-37
-22
40
1
17
2
8
33
51
7
-5
-18
-26
23
-34
32
-21
-17
0
-14
-32
13
25
-3
17
55
20
-15
19
2
-10
19
-52
-46
-19
24
7
14
9
2
-20
16
22
4
-24
39
-61
-14
-32
-11
-12
6
-37
24
44
5
-3
46
-8
25
-71
-2
-19
42
-30
53
-15
2
-11
48
-12
-9
10
66
-13
-45
54
-11
54
-8
19
14
-33
20
27
-5
-78
-36
35
47
25
23
5
-18
66
-4
-17
9
33
0
87
-12
-21
17
-6
22
-5
45
5
-36
-78
4
13
47
-2
85
25
-10
-9
25
15
36
20
-36
-39
-3
39
0
-54
34
52
-10
-28
21
-55
2
20
11
-21
25
26
1
25
-23
33
8
33
-7
13
5
-11
7
14
-37
-8
-21
4
-17
51
54
-13
-41
8
29
-52
-33
-28
-29
6
1
-4
36
-73
-16
-33
46
-5
22
25
8
18
38
-9
-15
20
85
-9
-17
-16
-4
28
53
-2
11
8
-41
-9
-15
32
-2
-14
-12
5
2
-48
-31
-22
-21
4
6
26
-38
-45
19
-29
-23
-55
31
-8
27
-117
9
11
-10
34
92
-27
11
47
-13
21
17
49
-5
20
-15
41
13
31
1
-3
0
-15
-11
53
10
65
44
63
-38
56
-12
5
-25
-3
30
-9
-1
26
6
-26
-4
-33
-10
12
16
32
14
-39
8
40
38
-21
-44
20
-31
-48
11
-92
-15
1
-1
20
27
-37
18
1
-46
-32
26
-17
1
0
19
33
-5
-29
-1
-12
28
-27
-5
-20
1
63
10
65
36
40
-18
25
2
-21
68
-5
19
14
22
-19
34
45
31
-23
10
-19
-30
-19
13
-52
14
-5
24
-85
12
11
72
1
-3
24
12
-17
-2
-34
3
-23
44
-4
58
-24
-55
31
7
9
93
-7
58
-3
-43
-25
10
-32
0
6
-19
0
43
-24
-1
10
35
-22
-10
-35
-18
33
18
-8
3
13
-40
-52
16
33
-24
-12
60
-57
-35
-46
64
19
12
5
66
-34
-83
-16
20
51
-25
-29
29
25
-15
19
29
-15
-23
8
6
7
46
13
23
22
-22
11
-63
22
-26
-3
-31
-38
-26
33
-11
-9
-10
-30
4
35
24
46
-41
-67
5
22
-10
25
12
-10
61
15
-36
-37
23
-41
-9
-6
-30
29
47
-28
-14
-28
-9
2
23
12
50
-31
20
-27
17
74
-11
33
21
11
-27
25
39
-42
1
-1
30
-52
-35
18
-20
37
-7
-11
37
-3
-4
-35
6
27
17
-23
-26
-37
-14
7
22
-7
32
2
-39
-13
7
-31
45
-8
-5
21
41
31
33
101
8
10
-46
-6
-47
37
26
27
33
-1
-13
0
35
-57
26
-5
-14
-77
15
-31
-12
28
-36
-72
14
6
30
33
-16
19
-22
-7
7
-52
73
15
-49
-21
15
53
-18
82
71
41
10
-25
-37
42
6
-45
59
-10
-18
-16
22
1
-46
14
30
36
9
21
-18
-45
-44
26
9
-11
-13
2
-39
36
26
82
0
35
42
1
-5
60
21
-3
-13
-15
-22
-4
-21
29
7
31
-40
0
-43
-21
4
14
34
23
8
-25
54
8
0
-26
-2
19
-23
3
-5
-28
-20
-19
26
37
-6
-41
23
10
18
33
23
24
3
4
-1
-8
20
13
50
0
2
35
46
1
21
-35
21
47
9
16
33
-34
-2
20
16
-19
-22
64
40
12
28
4
34
29
-37
-53
23
-49
-40
24
-12
-15
-5
-8
-17
-9
-23
-32
1
41
28
34
35
8
15
-5
-29
-19
29
-24
-14
-4
21
-65
-20
4
-18
10
33
-6
-35
8
-30
-17
21
-10
-59
-49
-15
13
-49
90
-14
-6
50
39
-43
31
-21
-41
0
-22
-26
-11
17
27
-6
57
-3
19
8
-5
20
34
-48
10
-10
38
-35
-25
-2
36
4
44
12
-36
25
7
13
22
-8
-6
7
26
-25
7
-15
76
8
10
-53
5
-16
-40
-16
53
60
19
-18
-35
38
53
25
-26
36
3
-52
-10
-100
-13
-10
-44
-31
4
-7
-59
17
-29
24
9
-31
25
40
-14
32
-13
31
46
51
9
-31
21
-1
39
-6
19
-8
-15
-27
-28
23
-7
-11
-2
25
48
4
-26
23
7
29
-13
9
-6
-9
-35
0
-1
37
-6
11
-12
52
-41
27
17
-23
-28
-19
0
-19
39
0
-55
-15
-53
-28
9
19
-21
-26
-22
-6
3
-12
18
-7
-16
40
-8
-73
-8
-6
-6
-8
51
-20
35
32
46
-10
29
3
-23
-1
-18
-3
-11
8
19
15
42
-13
-18
-9
-10
-24
6
-12
-28
22
38
-20
77
-59
-51
7
-25
-15
41
-22
39
42
55
-40
-13
-39
9
14
-6
-45
-8
-6
-38
-8
2
-33
-43
33
-17
-38
30
26
21
29
36
-49
17
53
-1
10
-41
-18
13
-3
13
-19
49
33
23
19
6
-34
-25
-33
-4
3
-31
-12
-22
16
-45
3
28
0
23
29
-39
62
-2
-17
-62
-1
11
7
46
-7
-30
-31
-23
-15
-31
-13
1
24
-37
-21
-46
-8
3
0
5
-2
-54
-7
25
24
2
14
-11
26
9
-30
-20
-16
69
-53
-20
-8
-19
-1
-5
17
5
-3
2
9
-37
-53
-15
-25
6
-55
22
12
-40
6
27
6
-63
4
4
-11
-19
10
16
-21
38
-5
4
25
-4
21
-9
-19
-13
-3
11
24
-21
20
37
78
22
27
14
-31
-29
20
-5
16
20
2
53
-23
-28
32
23
75
4
-32
-31
26
-10
-52
23
-7
-2
-11
-16
-41
-26
37
12
1
-22
-1
-56
4
1
-42
-36
-7
27
40
65
-51
34
-45
-9
-12
-43
14
26
-1
41
20
15
23
17
42
38
-8
-8
12
-10
13
-21
-39
-3
65
-6
2
51
-62
-5
5
-40
-32
-27
28
23
-23
-26
4
11
-9
-1
57
-28
21
37
8
-17
-4
24
-19
-1
-7
16
60
94
-9
21
100
-22
24
-13
-28
49
16
22
-1
13
45
21
65
58
-23
43
44
0
33
-4
-35
-20
-39
11
56
12
5
27
77
95
-44
15
49
5
24
46
10
-41
-77
-55
67
-2
37
16
41
49
-31
37
23
-14
-4
40
-18
-14
-19
30
34
6
81
-6
18
73
-20
25
25
7
-5
91
-27
-17
35
4
70
25
39
21
3
76
-21
-29
47
-2
-47
28
-14
-41
-18
15
22
-1
32
13
-10
42
-14
24
8
-10
13
21
-27
24
31
14
38
-7
19
13
-20
19
-39
45
33
-15
-42
-16
2
-75
-61
13
70
-67
1
-20
-29
-45
67
0
12
29
-36
13
44
44
8
8
0
20
-18
12
-9
68
0
-26
-37
20
42
1
8
57
46
22
7
-5
-41
-32
59
35
-11
1
11
-21
0
28
18
-11
31
-3
-46
-10
1
6
58
22
-21
10
72
-22
-12
16
-22
-18
32
18
-6
23
10
38
31
43
2
-15
43
-32
9
21
4
-54
-24
30
-16
36
6
10
11
17
-13
26
24
-29
39
23
15
18
-13
20
-4
14
20
-10
67
43
-16
50
50
-15
-80
-8
-44
-8
1
-27
21
22
3
15
31
16
17
35
5
14
-20
39
-33
-3
-61
-5
50
17
-31
38
14
65
38
-36
-18
-33
9
40
38
17
14
35
22
-7
42
28
23
36
11
-45
1
-28
11
5
36
7
-32
24
35
-31
17
-16
-9
-68
56
10
23
9
27
23
17
-8
-2
70
-6
1
19
29
-20
-23
26
-4
17
27
1
32
30
46
27
42
-47
-26
-15
23
23
39
19
-39
27
45
13
44
30
36
82
-10
-7
41
32
34
39
-12
-8
3
-22
-7
58
40
23
-2
45
-11
-5
6
33
11
37
61
-12
-31
27
-15
24
16
-32
-9
41
38
-18
25
5
33
5
41
18
-5
47
-16
9
-4
-4
-7
-22
12
9
30
-21
11
6
27
9
-43
39
21
-49
2
9
9
21
-4
100
32
3
2
46
47
-23
41
16
6
-27
24
-19
13
-4
15
-8
50
49
-14
35
-12
20
9
27
26
9
38
17
72
-27
-1
22
44
31
15
33
34
-3
-24
37
-16
-21
-20
15
23
-22
-2
-25
28
-18
34
-1
-70
35
2
0
7
-10
34
-17
-64
9
-24
-2
26
34
24
10
12
41
1
23
6
-20
3
12
-6
-7
-38
17
-12
25
-9
11
15
8
21
18
26
5
39
53
-29
1
-18
19
19
31
15
34
41
18
40
15
52
35
45
6
-23
9
0
0
27
-12
-16
55
34
-26
29
73
23
3
-21
33
-35
33
54
20
11
21
-22
35
11
-17
-39
47
20
-3
61
-14
16
6
50
50
-70
-8
-13
15
-23
-23
33
41
25
33
-15
4
43
7
-14
31
52
-9
43
38
16
16
12
25
-9
56
6
-35
-59
-14
42
-5
47
84
-2
9
-30
-1
41
22
6
2
-4
28
75
-7
-3
-5
53
-35
-14
37
-12
20
-7
-12
-13
54
6
9
-18
-57
6
9
21
31
3
13
-61
51
-13
-26
1
-52
7
-26
44
69
-5
-53
34
29
0
17
-67
-18
18
-13
-18
35
-35
-21
-35
9
7
37
67
-3
3
2
-19
9
16
51
-1
18
-7
48
48
22
-2
6
63
-60
-23
2
69
14
-13
5
10
0
-5
2
-6
7
-28
-13
19
-30
-19
49
-35
-22
-31
27
33
-32
-54
44
2
-41
34
60
-22
17
33
-24
-24
46
13
3
41
-28
42
44
10
-21
21
-32
-22
-16
27
-29
-3
22
63
-43
51
-3
4
11
3
34
34
-25
7
-25
-46
-25
-28
17
-36
-36
-1
20
-37
-8
0
8
11
-89
42
-46
-41
-12
-78
18
-13
-32
-6
8
-7
64
8
-54
-33
11
13
16
36
-8
29
50
-49
-12
-8
8
-10
15
-9
8
16
5
69
-4
5
18
-45
7
-10
-9
25
-23
23
7
-16
64
46
-13
-40
-1
-21
10
-26
7
-39
-15
1
-8
-16
6
-10
42
33
-26
25
53
7
-3
-12
23
-63
23
8
24
18
14
30
-30
9
83
-8
35
24
-41
1
24
1
-6
7
12
-19
59
31
27
-11
49
-25
14
-4
-11
22
43
21
-37
29
-48
-31
3
26
27
-1
29
-61
7
-13
36
-13
8
4
41
-19
-45
13
22
53
-13
-21
7
-7
-16
-2
0
-34
15
-8
-33
-15
3
-6
33
-17
-21
39
-39
-9
-6
13
-38
-79
-15
-8
-50
7
-23
-30
29
-7
48
60
-28
-72
23
38
-10
-6
29
12
-25
4
-41
-8
38
-20
19
-18
14
-11
63
-17
-4
-14
22
4
1
-23
54
-34
-3
-7
-9
34
5
66
21
-13
-23
15
23
-20
-11
48
26
-10
5
-26
-28
15
10
-4
-5
-8
-25
-36
6
16
3
23
-6
-26
-18
20
5
40
3
-6
-49
-38
-14
-23
23
9
-42
-4
44
27
44
83
-8
13
-22
11
-2
22
17
15
33
-1
-41
9
2
-22
67
9
37
-39
-9
-33
0
41
-19
-49
58
-3
24
58
9
-12
-28
-4
69
-19
-14
-1
-41
-7
14
22
9
55
52
45
37
-2
1
50
31
8
60
-15
-27
-28
-5
-47
12
19
3
38
7
1
-22
12
-74
0
35
-9
2
-27
-59
-50
8
27
-3
-15
-11
15
12
38
19
16
-14
5
-21
14
-11
-7
18
-19
-26
-22
-17
-47
18
20
20
9
26
3
56
6
-1
-39
1
-4
-22
-14
2
-54
10
-19
13
51
1
11
54
10
-19
-23
27
-62
6
-6
29
29
24
10
-17
35
27
16
19
-1
11
-47
31
-18
-20
33
7
-22
26
4
-10
-3
16
1
50
36
-4
-51
-7
-14
-46
-13
3
-24
-17
2
13
4
-11
-6
51
28
-11
-8
-23
-4
14
11
77
5
48
38
11
-34
-1
13
8
1
-1
-58
28
8
-17
29
22
-4
4
24
-12
-2
-15
-11
-12
-3
-11
-83
12
52
-58
18
18
-30
-35
38
-9
28
-16
-47
2
21
-24
-77
32
-8
-13
42
0
-4
23
2
-11
-10
-24
-5
-19
0
-3
-53
2
1
7
29
-6
57
-4
9
-20
12
31
31
30
3
-49
19
3
-10
-42
-36
-9
4
7
76
62
23
3
39
45
45
31
-27
14
30
-27
-28
-78
-13
-22
9
21
4
-25
-5
49
18
-35
-39
-27
1
30
-17
19
0
7
25
23
0
-26
42
-20
2
-15
-35
28
-24
-29
-34
32
21
28
16
8
11
-7
9
31
2
38
-11
2
-40
-8
-17
3
-15
39
13
-4
20
26
-36
-4
-3
-15
-58
-17
-56
-20
10
18
-24
33
-72
-13
0
-19
-39
-15
-1
11
-39
-15
-14
24
-19
33
-8
-31
-40
-9
27
1
18
11
53
-23
-19
-9
-25
-14
-10
-45
-3
-4
-30
-18
61
49
12
10
6
-15
-41
16
9
-32
2
10
17
4
42
-23
-28
-1
-45
-36
-5
-27
-21
44
-3
-7
13
-43
49
-6
6
-35
17
-19
-13
21
3
-6
-41
35
-20
-22
-15
22
31
18
66
-24
36
-1
38
30
-23
13
9
8
-22
-29
5
43
3
15
30
19
20
-62
9
6
39
-21
1
-8
-17
-14
-18
-44
-29
19
-22
30
30
-49
-38
6
53
15
24
50
-27
-30
0
-31
-8
3
17
24
-26
-14
9
-16
13
4
-8
5
-42
7
42
-5
36
0
11
27
-29
-29
-3
13
42
-39
34
25
30
34
-5
-3
17
-4
46
-2
-21
-5
-20
15
1
-38
-24
51
13
29
29
48
-29
-12
10
-6
31
-25
-12
33
22
-20
-12
64
-6
-11
12
26
-5
21
24
1
-12
26
13
64
15
1
-24
14
-10
32
13
41
5
0
5
5
-39
12
-16
6
-24
-35
-40
38
-17
-30
31
40
-18
-8
-2
-1
-26
26
-20
-7
-8
14
-54
-22
-31
-31
-4
23
26
58
27
-32
42
-37
30
-34
-17
11
17
-19
35
53
21
41
2
62
85
0
25
-19
32
-1
-8
-1
2
54
12
-13
-7
-43
-27
12
-23
-11
-47
39
11
-54
-32
14
41
-14
36
27
-14
50
13
-29
19
-18
27
-14
-24
32
59
33
65
-23
-7
45
-58
19
4
-2
37
7
66
-13
-20
47
67
19
54
-24
-9
28
1
8
0
-53
-50
-62
-8
-11
-13
0
-1
31
90
-54
-6
71
-20
7
25
8
-52
-60
-46
12
4
30
2
59
32
8
29
24
-30
-1
-12
9
-27
12
-29
24
-5
71
24
27
32
7
39
18
-38
-5
80
-9
-38
28
6
13
17
11
46
-33
48
-21
-28
33
14
-32
-4
11
-41
-4
12
-9
51
19
19
-19
10
-12
-39
-47
8
-10
-2
-39
30
44
-38
28
64
14
-18
-3
23
-55
9
15
-2
-14
18
-11
-38
-52
-6
40
-7
24
-26
-7
-32
11
-29
13
-22
-41
9
27
-2
20
2
0
-29
15
1
28
82
1
-79
-3
2
72
-3
1
-3
63
19
-16
6
19
-32
49
30
-19
-35
-14
-6
23
13
9
-15
17
51
-72
-13
22
-18
25
17
-21
32
36
-16
-13
15
-15
-21
26
47
-19
19
12
-3
46
21
-49
-16
54
-21
-16
-13
-2
-44
-26
5
-10
47
49
14
-5
2
-31
-12
28
-5
-1
-4
-15
-25
-15
-8
-9
51
65
-3
4
-2
14
14
19
-34
-93
-12
-1
-6
21
-8
15
32
29
17
-32
0
28
-15
-23
-15
21
-23
16
13
-47
-11
-4
75
-59
1
8
24
44
-11
-15
-5
-11
6
33
-6
-55
9
-29
38
16
0
-20
30
3
-17
7
27
-34
-9
-6
-17
-10
10
18
18
20
-45
-27
-44
32
-2
-15
7
79
16
16
-36
-6
33
12
-7
42
4
24
-6
19
21
0
30
7
-13
-3
30
39
51
-87
-55
-26
6
44
63
-5
-50
26
40
20
34
7
7
52
2
-33
74
29
-3
14
-33
-6
-45
3
-10
31
-14
22
-2
-11
1
-1
28
10
1
53
87
-26
0
22
10
-13
-55
-10
-38
33
16
0
18
8
19
31
59
8
-4
65
-8
-16
-27
-21
27
-16
-32
52
68
-2
16
-6
3
-16
-19
28
-7
-72
-18
15
19
2
0
95
16
12
49
47
19
-16
-5
-2
24
-72
10
6
65
-3
8
-11
51
-4
16
33
-24
54
-26
-5
26
-11
28
23
50
-30
19
12
22
50
-35
-4
-4
10
-30
13
6
-42
21
11
14
-21
19
-35
76
-39
-1
-22
-2
8
51
20
17
-18
3
-45
-63
35
-25
-14
6
-21
-9
-11
-3
6
17
53
17
-30
-13
6
-30
35
-15
-29
-42
14
-38
23
-1
12
16
63
35
11
28
21
-2
25
-33
-41
-13
12
11
12
31
36
-1
28
27
34
-53
6
-61
-15
2
-19
-46
12
-51
-6
-7
16
-42
41
-9
3
-4
-6
-57
62
-2
37
21
1
-12
41
-26
-32
-24
35
-4
-9
13
2
28
8
9
18
-34
12
15
18
-26
-5
17
49
29
20
-16
-8
41
-9
9
6
60
-16
96
-9
3
-16
7
-17
16
45
9
-13
-41
-5
26
20
1
88
51
8
12
6
-11
14
11
-25
-49
21
53
-12
-9
32
57
-11
0
-4
-82
35
-14
18
-7
7
1
26
-1
-21
-3
-13
47
34
19
-26
-46
36
-6
-48
0
-29
-21
-19
33
60
-28
-6
23
0
-52
11
-16
1
17
37
-2
53
-33
-30
-38
27
-44
31
17
5
-21
34
12
10
19
63
28
-6
-47
32
69
33
-5
3
-16
-27
10
-8
40
5
-20
-13
3
14
-39
-8
-47
9
1
-6
2
-17
-20
-1
-25
-8
-75
-1
-6
19
-38
25
-30
15
58
116
-23
14
45
-16
7
35
60
19
24
5
13
33
50
-35
15
-30
-11
-9
84
-7
71
11
56
-42
13
-30
-1
-21
5
-14
-21
-2
12
-3
13
-32
-37
-5
19
29
20
15
-48
19
-17
49
5
-35
9
-2
-37
-20
-66
40
37
2
11
-5
-31
26
-7
-9
-15
18
-41
52
21
-37
39
29
-20
-6
20
9
3
10
-17
-5
22
4
30
-4
0
-9
-10
16
-7
11
20
16
-27
18
3
32
19
24
-49
-32
-12
-11
-6
-11
-27
22
-9
23
-57
24
-34
55
-8
-6
26
13
7
37
19
15
-6
22
-23
31
-24
-29
10
-23
23
95
-5
40
23
-33
3
37
-1
-2
1
-13
31
53
-37
-14
15
14
-20
8
-14
-7
41
17
26
-19
2
-29
15
-9
19
-8
26
67
-31
-24
3
70
45
25
-28
41
-14
-34
-5
42
57
-14
22
6
-59
-9
2
30
2
7
-9
8
4
23
-2
14
16
-24
17
-52
-16
-19
19
4
-7
-2
32
42
-20
-19
-59
11
27
21
39
-11
-68
25
-5
-4
63
9
-13
63
17
-35
2
59
-11
28
6
-3
-11
86
11
-10
-11
3
6
15
-1
60
-18
-32
-34
34
52
-17
59
36
0
-57
-18
5
-34
-2
9
49
-39
3
-6
-17
27
31
-28
18
-28
-30
-19
30
4
-10
11
-30
-25
8
-1
-12
-30
3
1
-50
-61
32
-9
15
13
-43
-4
50
-4
45
69
-13
17
-39
-26
-4
23
5
35
26
34
-23
-8
17
-12
21
-20
-23
-54
-20
-19
-17
27
-41
-65
20
-32
24
50
9
34
-30
9
6
-24
13
-8
-47
-39
-8
18
2
50
62
19
45
-38
-33
37
1
6
63
17
-42
-13
-7
-27
5
44
16
38
22
4
19
-12
-31
5
-5
-3
-65
8
-43
28
38
67
28
-8
50
-5
17
57
34
18
-17
14
-46
-33
-9
34
16
5
-23
45
-47
1
28
6
9
0
0
-23
58
6
-23
-39
-8
-1
-15
44
0
-27
21
-30
7
38
-42
-19
4
1
-7
-2
13
-18
3
18
30
-26
34
46
55
7
2
32
-4
18
19
9
44
23
-13
-3
29
-26
13
-5
-6
-19
7
31
6
21
20
-11
41
8
-19
-38
39
-54
-14
-11
13
-35
12
-34
-9
2
-7
3
-4
24
12
29
63
18
24
15
-39
4
-33
-27
-13
30
-31
-81
-20
10
-42
14
-4
30
13
15
-45
0
-34
-25
-27
-28
-13
-19
-34
40
-47
-15
9
-4
-42
33
-38
-6
-2
-36
-31
20
-3
-22
31
39
-21
27
34
19
2
-14
11
-9
10
-18
-17
17
-8
13
22
29
-56
-14
46
3
10
40
-21
-38
-1
10
-26
-4
-26
27
1
12
-12
13
-29
7
1
81
28
44
-2
-12
27
55
24
-11
19
29
-4
27
-50
-45
-14
-28
2
28
-36
-42
14
-16
-6
-11
-15
13
33
-12
28
-31
44
41
37
20
28
38
1
40
5
-3
34
-16
-28
-10
32
18
-6
-10
7
17
27
-37
-5
-6
56
25
-15
21
-35
-36
27
-28
22
14
6
-6
15
-42
-6
-10
-31
-19
-21
-21
-10
23
33
-56
-42
-39
-25
-7
-10
-41
15
19
-28
-5
-11
1
0
-5
38
-13
-62
-20
-15
12
32
-8
5
22
38
24
-33
8
15
-15
-60
-2
-9
-32
15
-11
41
7
-14
-31
-27
-41
-40
7
-40
-15
19
31
-27
30
7
-40
29
-26
0
21
-10
33
40
61
-24
12
-34
17
-7
37
-25
12
7
-64
6
13
1
-16
-11
1
-36
38
8
-6
-2
37
-24
6
35
24
29
2
-35
14
1
-17
-27
52
19
6
32
-19
-9
1
-48
8
13
-3
-29
-26
-4
-28
-9
24
-26
-10
42
-24
-1
-1
-26
-14
5
49
21
39
7
-11
-4
-16
14
-23
-16
29
28
-50
-44
-40
-8
22
-4
-16
-18
-39
2
28
-2
6
-19
-5
-11
-4
-20
-9
8
52
-35
3
-1
16
21
-7
24
2
-6
-4
44
-3
-48
18
-49
24
-15
39
-4
-7
48
18
38
-38
-2
18
-9
18
-14
42
-4
28
5
58
6
8
-3
-36
17
-19
-9
40
-18
-17
39
54
59
9
9
5
-4
13
73
-36
27
6
32
67
7
-10
31
47
17
-9
-18
-4
39
-34
-4
-12
17
-5
15
13
-14
-47
43
55
16
11
-26
-42
1
3
-22
-19
7
4
53
41
-40
18
-6
11
4
-37
-29
6
0
23
7
15
53
1
27
29
-13
34
1
33
38
10
-16
-27
26
-17
16
31
-68
-12
2
-14
3
18
20
22
-4
19
12
-22
-4
19
-11
-24
9
-2
-13
8
-16
-14
19
-20
12
-9
10
-3
17
-17
-20
18
1
-1
19
-2
-4
5
-1
4
3
12
-3
-3
-2
-5
-5
-2
18
-19
-6
20
0
18
1
-2
-8
4
-22
-3
1
18
12
12
-9
-1
18
-14
1
-21
-17
4
-10
3
-8
-11
8
19
12
-7
-3
-5
-21
-8
20
20
-12
-8
-8
-5
3
-3
-11
-4
4
-11
-5
-3
-23
14
-2
10
6
20
-5
19
-20
18
9
-15
-22
-14
-6
-10
10
-9
7
-15
11
0
6
-4
-12
2
15
-2
-8
16
-20
-20
18
-7
-22
-8
-17
-19
-17
-12
9
-10
2
-19
20
-18
-21
-22
-1
6
5
-7
-17
-12
18
-16
-22
15
15
1
21
11
-9
-14
-6
-8
-14
-12
1
-14
-11
12
-23
22
-24
20
-8
-14
-18
-4
14
7
-11
-13
-10
22
-15
19
10
-12
11
16
3
4
1
15
-23
-2
-18
2
-3
0
-2
-14
-16
7
14
-15
-9
1
19
3
10
17
-16
-22
6
9
-18
-15
-3
-7
10
4
0
-3
2
17
-22
18
10
-19
-9
-8
-1
0
-8
-7
-4
-19
19
5
6
-15
-15
18
13
-22
-13
1
-24
-13
-9
-21
-25
-20
6
14
-4
-9
-2
2
1
-2
13
-11
-8
5
7
5
-5
-12
3
2
20
21
-22
6
2
-17
18
4
-13
-19
13
6
-11
-22
14
-7
14
-20
-1
-19
14
3
-6
11
7
-12
16
-6
11
-8
-1
-5
-24
-12
-1
-21
-10
-1
-5
3
-15
17
8
21
-1
-23
-19
-5
-1
-5
-24
4
18
-14
-5
1
19
8
-3
10
-22
0
16
-19
12
-13
-24
-13
5
-11
15
13
8
-7
-13
-1
20
-1
-4
20
17
-16
-3
20
-3
-24
21
1
-14
-9
-20
1
-14
18
-10
-1
8
-15
2
3
-2
-23
-16
5
-18
7
-17
9
-7
-2
12
-4
-3
17
-16
10
-22
-21
-23
16
9
18
-2
18
20
4
-22
-3
-5
-19
-19
-24
-3
16
19
18
14
-23
-14
0
9
5
-3
13
-9
-20
-21
18
-10
-10
-10
21
-14
1
-3
-14
-19
-10
15
3
17
-11
15
18
2
2
-5
0
7
9
-4
-21
-13
6
9
-22
-14
20
6
-2
18
-2
19
-9
11
7
9
-22
18
-15
19
-15
8
-5
-22
-4
7
-15
1
0
3
-14
-19
-14
-2
20
13
-19
-15
6
-18
6
-22
-5
-13
-12
-23
3
0
-6
-19
-3
8
15
-7
-9
-18
-11
15
19
-12
2
-20
8
-14
6
-24
12
12
-16
9
-4
-25
6
9
14
-3
-17
-9
19
9
-1
-16
11
-5
3
-3
6
-21
-7
-3
6
-1
6
-16
11
-20
13
-2
19
-1
-8
15
7
-16
-4
4
0
12
10
-5
-15
17
0
-6
-12
3
-4
-12
18
3
18
-11
-4
-4
-1
-19
10
7
-6
-12
-19
17
20
-11
-3
3
-22
-3
17
9
9
20
-11
-15
2
0
-4
8
-5
-14
3
3
-3
-18
-23
-18
-15
-3
2
22
-17
-11
3
-3
-23
20
-19
-4
-15
-23
-24
-15
11
-23
2
-6
20
-24
-17
-14
-17
19
-12
13
-10
-18
-12
2
-17
14
10
17
-3
13
19
3
-7
4
-11
-13
16
14
0
-1
-15
13
-6
4
2
-13
14
7
-4
-18
-2
-21
14
20
-16
11
14
-7
-13
0
1
-21
-15
-10
8
-23
9
-18
3
-12
-8
-8
-19
5
4
7
11
-18
12
-5
10
14
-23
8
-14
16
2
-1
21
-21
-20
10
-7
20
-13
2
16
9
17
-6
-18
11
-19
-10
-10
-8
20
-5
13
-5
-16
10
-2
-8
-7
-12
-15
6
-18
18
-13
6
-16
-15
-14
-17
-8
-20
12
-12
0
-7
-23
-22
11
9
11
-13
-9
-11
13
10
-19
1
4
-21
-3
14
-16
6
5
-13
-19
19
-15
9
-16
6
11
3
-18
5
17
-14
8
18
-2
12
-1
17
-3
2
22
12
-19
-19
13
-22
10
-17
-12
12
7
0
-9
-4
17
-12
-12
-3
20
-9
-15
-20
-21
-10
-10
13
12
-10
6
-16
17
-9
-18
-6
8
9
14
7
-21
5
4
-21
8
-13
9
16
-18
-1
-12
-14
4
13
20
-9
-5
16
-10
-17
8
9
-23
-16
-21
14
-18
-5
19
-19
-19
8
17
-11
19
12
-15
-4
-15
-24
-7
0
-18
-8
11
0
-9
-15
-1
14
14
-20
4
-18
-14
4
10
11
-3
-9
14
21
-22
-13
-8
0
17
-10
-16
19
-13
14
-9
20
-7
-3
10
-22
-15
-24
-3
-4
-20
-13
-14
-20
18
19
19
6
7
-6
1
17
-13
16
-16
-6
3
-4
1
11
16
-12
14
-25
3
-12
18
-16
-22
-15
-21
8
0
15
-16
7
-1
-20
13
-9
-4
-1
14
19
16
1
4
0
9
-13
9
15
2
-2
11
5
9
-19
10
2
5
18
10
15
-23
-3
20
-18
-13
-4
4
-16
-13
12
11
1
-6
-23
12
-19
-24
-16
2
-6
10
13
14
-22
5
20
9
3
-13
-20
10
12
-3
-21
-18
11
-4
-3
5
4
15
-6
-10
2
13
-13
1
13
-23
-12
-12
5
21
5
-7
-13
5
-14
-3
-24
12
4
-17
-15
14
-20
2
-20
-2
-23
-9
17
7
11
-7
-7
-12
-17
7
-19
19
20
-10
-24
-6
-3
14
16
4
4
15
21
12
-16
3
-10
-19
-24
-5
16
23
12
-9
1
-16
5
-14
22
15
4
5
7
-18
-5
2
11
4
-9
2
2
-3
20
-19
7
-22
-8
-11
0
5
-2
11
-2
16
-18
-10
-16
13
18
-2
-24
-10
10
-4
-1
15
4
3
5
12
-10
-20
-14
3
-18
12
-8
15
-5
-20
-15
-15
-18
-21
-22
8
-20
4
-10
-20
-2
2
11
14
7
12
11
-9
-24
-8
-12
7
-11
-7
19
6
1
7
-2
-8
9
-2
10
-21
11
-4
11
4
-19
-19
6
-17
-4
-10
7
-9
-18
-4
-23
16
-4
-24
-16
-22
14
-10
3
1
6
11
12
0
-23
-22
4
-20
4
-2
-9
0
-6
-2
14
-3
-20
-9
13
-21
-1
7
19
-23
-23
-19
-1
-22
-10
-11
-10
1
-15
-13
-10
-13
18
8
-14
-8
-17
-21
11
17
7
3
18
-8
-16
11
18
-20
-1
14
-18
-20
16
-15
-1
-21
-10
-12
7
20
-4
12
19
-5
12
5
4
-10
-7
-23
-1
-14
3
17
18
-5
3
10
7
-7
-23
-21
-10
11
9
-17
20
8
10
-1
13
2
-5
7
-15
-4
-11
5
-8
8
6
11
-9
20
18
-15
-23
3
4
-11
-18
-2
10
19
-18
-7
7
-20
20
-5
0
-6
8
-1
14
17
-10
18
10
14
-18
-25
10
6
-22
17
-15
11
-15
4
19
2
16
7
11
-4
15
4
15
-16
-17
22
17
11
11
-2
17
1
-7
16
19
15
3
-10
5
4
16
-16
20
-17
-20
14
-22
-6
21
-21
-15
16
14
-10
10
11
19
11
0
-15
-11
21
12
-16
-2
-2
-15
-4
-15
-1
14
18
-18
-3
-20
-18
-16
17
-7
19
-13
-13
16
-19
7
-15
-9
9
10
-6
9
-8
-5
-23
12
-19
16
-4
10
14
-13
-3
14
8
12
-4
-20
-22
6
21
-18
19
23
-8
-14
10
-10
-7
0
8
1
-6
17
-1
-8
14
-1
19
-16
1
17
10
20
-9
-2
-21
-21
-11
-7
20
-21
14
8
-2
-1
-2
-17
-13
-7
15
20
7
14
-5
-20
-22
20
16
8
-13
-17
-3
-6
7
1
-22
-22
10
0
-9
2
-5
7
-8
-21
20
-10
-5
-24
8
-3
-2
-17
9
19
18
11
4
-7
-17
8
15
-24
-25
-17
3
-13
-14
-3
11
11
-23
10
-2
-3
-9
15
16
-3
6
-20
-13
-6
10
15
11
-13
4
-6
-12
-20
19
14
17
5
8
-17
8
-19
14
-5
8
-1
20
5
-19
-14
5
-18
12
15
-2
-23
-18
-7
9
-24
0
-5
-10
5
-15
4
-3
-3
-13
-22
13
-23
12
6
-2
9
20
-18
21
-17
10
-17
5
-7
-9
16
10
-4
20
-19
9
1
-16
20
11
15
15
-24
-11
-13
0
0
-14
11
3
28
-53
-35
-42
23
-12
-46
-23
28
2
-10
25
58
-16
60
6
-6
14
18
30
-52
2
-3
44
20
30
-18
-44
40
-31
17
2
-33
64
15
42
-9
4
67
47
36
39
-23
-12
64
19
3
-25
-22
-38
-45
28
-11
-18
-16
38
56
44
-34
-23
89
-17
-15
23
33
-45
-70
-55
16
3
6
-5
23
30
5
25
16
3
-41
-6
23
-35
-5
-27
23
16
61
24
2
18
-3
26
-10
7
-13
55
-15
-51
9
-3
13
35
14
6
-18
40
3
0
30
14
-18
-11
11
-18
26
-3
31
47
-18
30
-7
-24
-15
-27
-43
41
31
26
-35
9
14
-2
14
69
16
-8
-2
2
-76
-21
22
7
18
48
0
-2
-19
10
47
22
24
12
-20
9
40
-29
17
-31
-6
20
26
11
33
46
3
-28
21
18
28
72
22
-56
-2
29
69
7
-9
16
24
7
-28
-40
-8
-18
64
12
13
-43
-17
-1
-16
28
33
-52
34
52
-58
-22
8
14
33
-14
15
13
47
15
-6
15
-14
-38
31
18
-48
-9
42
21
4
10
-41
-9
38
-2
-46
-1
2
-43
-13
-19
-25
45
49
6
-2
-16
-26
-13
45
4
-35
-23
-2
-20
-12
-7
-4
18
65
25
14
2
-21
-10
13
-13
-71
-16
-33
-7
15
-9
39
31
-8
37
-26
-22
14
-12
-22
-7
16
-9
-7
29
-36
-19
-12
66
-57
-9
46
19
30
-26
-19
2
-5
-12
35
-5
-74
18
-19
20
8
-22
15
23
-5
-44
35
10
-26
12
25
0
19
18
28
53
13
-44
21
-33
20
21
14
-14
89
38
24
-39
19
38
26
-9
76
-17
19
33
27
-17
35
16
-11
9
28
24
46
44
-61
-36
-26
-18
53
63
3
-70
43
20
18
34
17
-4
37
23
-17
37
19
-12
9
-2
26
-14
-23
-20
43
-43
29
7
-8
2
-11
24
13
-25
27
105
-7
-25
46
-5
-3
-52
-9
-46
60
14
14
-1
27
33
21
29
18
19
80
8
8
-12
-21
7
-25
-24
22
89
-37
2
38
16
-31
-5
57
-15
-76
-16
5
34
-4
4
106
24
21
25
41
15
12
19
3
-1
-69
-2
-32
46
-13
-3
28
70
-3
-20
42
-33
30
-21
-15
26
-36
1
14
53
-31
21
2
31
38
-32
1
0
2
-56
36
2
-36
8
8
0
-17
-20
-8
115
-39
-32
-15
34
4
24
18
-10
-24
26
-34
-44
17
-48
-33
-7
-28
10
28
1
9
34
13
15
-20
-8
7
-13
1
-27
-18
-48
25
-57
2
19
26
37
54
31
-18
15
22
-37
3
3
-53
-24
38
-17
-19
31
28
-25
28
18
13
-57
-2
-34
6
-22
-24
-25
-9
-40
3
5
7
-42
46
25
11
-41
11
-32
49
-3
4
4
1
1
8
-38
-30
-14
68
-6
-13
-8
-8
32
8
-18
4
-25
26
18
3
-35
-16
20
39
35
-17
-34
-6
66
0
-4
27
27
12
84
34
-13
-24
-20
0
15
2
12
-10
-52
-18
14
18
16
71
44
17
-14
16
-7
30
30
-45
-47
32
38
-19
-50
10
39
-19
-2
-18
-46
14
17
18
3
41
14
12
1
-24
-5
15
29
18
26
-23
-20
-2
-40
-77
21
-9
-6
-11
50
77
-14
-18
26
-3
-25
-5
-36
-21
21
12
0
38
-64
-3
-6
32
-51
41
32
-4
1
3
29
-7
24
73
10
-13
-40
-1
53
31
-4
25
-10
-8
-6
2
18
6
-42
-37
9
-8
-51
1
-54
12
-1
20
4
-30
-14
-29
-18
-43
-73
0
4
14
-59
18
4
-19
29
79
10
23
68
-18
32
-1
22
-14
21
-20
1
21
22
-24
-3
-21
-14
-25
53
20
64
37
78
-43
11
-45
9
7
-3
14
-28
5
-19
0
10
-28
-35
21
6
24
7
4
-56
-6
-9
63
-32
-41
-30
-13
-33
16
-91
19
27
-17
3
-10
-46
54
-11
-3
-10
44
-36
48
7
-7
45
12
16
33
11
19
-16
-21
-42
18
35
42
7
7
-4
-33
11
-18
-21
26
8
6
-36
10
-4
39
22
39
-12
-37
-32
-26
-22
15
-52
-19
-15
-3
-43
-9
-15
42
-3
22
13
-5
4
15
33
20
-4
30
9
6
-16
-18
13
-15
8
97
6
34
-11
-1
-11
16
28
11
-16
-39
31
23
6
19
0
7
-13
8
-9
-4
67
32
-15
5
0
-65
-12
26
15
11
27
49
-36
21
7
61
24
25
-36
57
3
-54
-9
31
50
-16
-8
31
-32
-35
24
44
0
-16
-43
18
7
23
-9
36
23
-21
5
-34
-12
-18
18
-5
-31
4
39
48
-6
-24
-32
15
23
19
33
-8
-70
-9
17
-4
61
11
8
59
28
-29
-18
32
-24
-6
1
-29
-6
47
-3
-23
-42
11
5
25
10
67
3
-4
-19
41
27
-24
41
29
-6
-32
16
15
-40
10
6
21
-57
14
0
-19
25
13
-62
12
-9
1
-33
31
0
13
-4
-15
-22
22
-24
20
-31
-3
-26
-40
-45
30
-15
13
30
-41
5
61
12
8
67
-26
24
-74
-27
-50
23
39
56
21
5
-39
-10
21
-19
32
-6
-13
-34
-8
-18
-19
32
-32
-81
26
-27
53
51
13
51
-9
-3
6
-21
25
-1
-26
-43
-1
8
-21
48
66
21
56
-25
-8
41
-2
-11
37
-16
-28
-37
-17
-38
-6
42
11
5
48
0
18
-2
-11
1
2
-8
-39
-4
-5
36
43
70
9
31
51
-13
-14
92
48
14
-16
7
-10
-21
23
44
-4
32
-29
19
-14
17
38
31
26
-1
-2
16
13
-25
-7
-33
-18
19
-33
29
-11
-8
5
-26
4
15
-29
-18
22
-11
-12
3
23
13
18
9
-4
-51
52
10
31
19
15
9
27
5
42
9
25
12
-2
-4
41
-38
20
23
-20
-3
23
17
-8
33
30
4
16
9
-48
-8
39
-6
-22
25
11
0
12
-27
1
30
-30
-7
-33
63
25
12
58
10
-17
13
-3
-20
-26
-29
-1
33
-24
-85
-28
18
3
13
8
-1
6
15
-12
20
6
-31
-20
-21
-7
-39
-14
55
-3
-4
17
-8
-60
14
-18
-2
29
-12
-12
-10
7
-15
13
52
6
5
8
-3
44
6
-10
11
-3
-24
-22
7
-30
52
-5
10
-40
-17
54
-8
23
56
-29
-6
-33
-23
-14
-5
-15
43
17
21
1
14
-4
-11
-4
58
49
30
-10
-30
28
19
30
-2
22
29
-39
22
-79
-45
17
-63
12
21
-15
-33
-1
-37
3
37
-37
39
16
10
45
8
50
12
13
-11
31
27
2
13
35
29
16
18
4
9
20
5
-9
28
56
10
33
-40
34
-2
57
5
-5
16
6
-30
19
-25
3
-2
14
-14
8
-33
-22
-11
-6
-5
-26
33
-6
11
59
-54
-44
-42
-16
41
10
-13
21
28
-3
5
-8
18
-19
-3
61
25
-54
-14
12
4
15
26
-26
20
45
0
-30
5
-8
-44
-45
-46
-6
-18
7
-6
35
36
-6
-11
-8
-8
-26
27
-12
1
-12
31
1
50
-18
-61
46
-14
11
32
-27
37
39
65
-18
16
-30
29
-14
13
-12
23
-3
-65
16
32
-37
-37
-10
-7
-58
-1
41
-1
21
60
-4
17
36
22
-3
-37
-34
37
1
-16
-11
57
2
4
13
-26
-8
-3
-29
-13
27
5
-42
-1
-20
-49
-19
4
27
26
35
-29
37
-4
12
-9
27
15
22
49
20
25
-37
-7
-4
-28
-10
24
25
-43
-23
-41
5
5
-20
3
-20
-24
-3
12
-7
36
-24
-4
28
14
-41
19
17
73
-55
5
-16
-5
-10
29
31
4
-34
12
18
2
-85
10
-35
21
-17
35
14
-10
28
6
3
-51
-12
-13
-10
34
9
22
-16
20
6
49
26
-8
11
-6
-1
-39
-1
2
10
-30
14
55
32
6
23
9
1
9
36
-19
40
26
-3
50
-2
-41
29
81
37
-5
-17
-12
48
-25
-31
7
27
13
-21
-2
-36
-35
50
47
7
-9
-28
-14
21
-28
-55
-27
16
37
27
58
-29
3
-27
4
0
-32
-19
-8
28
45
7
2
59
-5
30
60
-2
29
-14
-6
45
24
9
2
16
8
32
51
-31
-12
-6
12
-18
13
6
-12
-3
2
4
-10
1
-3
2
19
20
-11
9
-7
-21
-10
-1
3
-14
-19
14
-30
-16
15
-31
-16
10
5
-15
3
13
-1
-4
-22
11
-17
9
-29
3
-6
-32
-15
8
0
12
-6
1
11
6
-10
-21
1
12
5
-2
-10
-31
16
-1
-4
22
4
6
19
6
15
0
-20
-17
-5
5
7
-22
19
-1
8
10
2
-10
7
7
-14
7
5
6
1
-4
12
-8
17
4
-12
18
15
8
12
-6
-2
9
11
8
-27
-12
7
-5
-6
12
-19
7
16
12
-19
13
12
9
-25
7
-8
2
15
-8
-4
8
1
-2
-5
-6
12
-16
-8
-12
-3
-16
-3
-16
-26
4
-26
-10
3
18
1
-2
-7
-16
0
-11
-4
-7
-25
1
2
-6
-2
-2
1
13
4
-7
5
-9
17
-15
16
-10
2
3
-6
2
-22
9
6
-14
-17
6
-12
14
-19
1
-3
-11
-12
16
-1
-1
15
3
9
-12
-27
16
16
-8
-12
-14
-14
-4
10
18
-1
-30
19
-8
-19
-21
0
9
-10
-4
8
0
0
-2
2
2
1
5
6
-22
-28
10
13
5
-18
-3
0
2
-5
8
-4
14
0
-1
16
-19
4
4
18
-24
3
-12
12
9
-20
-20
-3
12
-3
6
-8
23
8
-20
-9
2
-15
-26
-12
0
-26
-13
9
-21
19
-7
17
-11
-10
20
-4
-9
11
-15
-24
7
-23
20
-4
-15
-2
12
10
20
-21
-6
20
-18
9
11
-2
9
-16
3
-16
-13
-26
10
-8
9
13
13
-11
3
-3
-15
14
21
-14
8
-21
-4
19
-24
-1
12
16
12
-12
16
13
17
0
-12
-4
16
-9
15
-23
-4
4
-3
-22
-13
-16
-20
-10
14
6
-11
-27
17
-27
11
-2
-11
-13
8
-18
4
-17
18
11
-1
-7
-17
-27
1
-20
0
-22
10
-15
17
-18
16
9
-23
-5
0
-29
-22
1
-18
2
11
12
-20
2
18
9
19
-24
-1
-4
-22
-19
-5
-22
4
1
-5
-2
-12
-2
3
-5
-11
-8
-17
-15
-2
-26
-22
9
-20
-22
-19
-7
-25
-5
-6
11
4
21
-6
5
4
-1
14
2
6
14
-4
19
-6
-12
15
-7
15
-24
-19
4
-15
-6
-24
4
-12
-13
18
18
-7
-6
-16
1
20
21
-12
-24
7
11
-13
-24
-6
-13
-24
-3
-19
16
-16
2
-20
-19
20
-8
-2
-20
23
-9
-15
10
-6
0
-25
-13
6
-3
7
10
-23
-17
8
14
-21
-13
-21
-10
17
-4
5
-19
-25
-17
-12
-14
8
-4
-28
5
-21
-4
1
-10
-3
13
-30
13
8
10
-3
8
8
7
-1
-12
-21
17
1
-3
9
11
-20
18
7
8
19
2
16
-25
-22
-18
-9
-13
2
13
8
6
11
-2
-2
-7
-21
-7
2
-23
-22
-25
-17
-3
-5
2
-17
-16
-24
15
-23
-4
-6
-27
-10
-24
19
7
-17
-24
-22
-22
-7
-18
-4
12
9
4
-23
-19
1
-2
-16
-15
-2
-3
15
-11
-12
-17
13
4
1
-12
-23
-20
18
-14
9
-8
20
-7
-22
-12
11
22
15
1
17
5
-11
-21
8
-16
2
23
13
7
11
-20
-20
6
-15
6
-3
3
1
20
-3
3
9
15
-6
7
-10
2
-6
11
-26
-16
-18
-8
-24
18
-17
-11
-9
13
9
19
4
14
-11
1
-21
-2
-14
-2
10
16
7
1
5
11
-6
-15
-21
5
-16
-6
-31
16
-22
10
10
-28
-21
17
-6
11
-5
-8
-5
-21
-8
12
-18
-17
7
7
-9
-16
18
9
-6
-14
-4
-11
-4
-9
-7
7
4
-7
-22
14
-18
-24
4
-7
4
-7
-21
-16
-17
-3
-11
2
-23
-12
-11
22
-13
-5
-2
-20
1
-21
-14
9
1
-17
0
-1
-10
-7
-17
2
4
11
15
-19
11
0
7
-24
-18
8
5
12
-23
17
19
-31
2
10
-19
-14
12
-2
17
17
-12
-28
-19
-17
-28
2
-15
-9
-4
14
3
1
-15
-18
-22
-14
9
-3
-5
-1
-22
-8
-1
3
-23
7
-11
-6
9
-16
17
19
-27
-21
-21
11
-21
-19
1
7
-9
6
5
-11
16
0
-15
11
10
-5
-11
5
-18
-3
-13
-10
-9
-4
6
-13
-5
-10
5
-6
7
-5
20
11
4
9
-18
-5
1
-7
-23
0
8
-20
-9
-5
7
-20
18
-11
-30
14
18
7
-18
-18
-8
12
-11
5
-16
-14
7
13
-15
9
0
-3
17
-3
18
-15
14
16
16
-6
-6
16
-22
13
-16
9
-15
14
14
13
-6
-19
-10
9
16
14
-6
-21
-5
-5
-3
11
-7
-2
-9
-8
13
20
-6
-17
-1
10
-6
1
-10
-11
-14
13
12
7
-15
9
-15
5
15
13
-15
-3
6
-23
-1
-15
14
-21
-5
5
-22
8
8
14
-11
1
-6
-28
-24
3
12
-1
-6
-13
-8
-10
-7
-16
-18
3
-13
-13
15
-21
16
15
15
0
-10
6
-8
-14
1
-15
6
-20
-6
-2
-21
5
-20
-19
-17
10
-9
-16
-1
-20
15
-27
1
-7
13
-24
18
10
15
-6
-17
14
16
-9
6
12
10
1
-14
-1
16
-20
-4
-22
-8
15
-2
-3
-1
-3
-23
-3
-7
-18
2
-5
-22
-1
7
-12
-3
-15
-22
-12
-5
-4
0
3
-16
-24
-14
-8
13
-18
-8
-7
-23
-10
-6
-5
4
16
18
-3
12
-3
-20
-11
15
16
-9
-18
-13
0
8
-1
17
5
7
14
-24
-22
7
0
9
-7
-13
-23
17
0
14
20
8
7
0
-2
5
-17
5
3
0
16
0
1
-25
-23
-4
-25
-9
1
-20
-17
8
-13
-18
12
-10
2
11
8
-23
5
10
13
-13
-2
-23
-4
-6
22
-4
-6
4
-7
-19
-1
-13
-8
-15
-17
-10
-11
5
11
12
-4
-18
-4
-21
12
-17
-5
14
13
1
-3
-25
-5
5
-21
-15
-9
-1
6
21
-10
-5
8
0
14
-10
-21
-10
10
13
-5
-2
-3
-25
-23
-21
5
11
3
18
-12
18
-10
18
-23
10
-8
6
1
-13
-6
-4
-9
14
-15
19
-10
18
-20
-24
13
2
-1
21
13
-16
-7
-15
19
-1
-6
9
-10
-18
-12
20
-17
12
-16
-5
-16
10
-13
-13
5
-2
19
-12
-1
-2
-15
18
-24
-3
-25
-13
-1
-20
-12
12
14
-7
-14
9
8
-20
-5
-21
2
7
9
1
-1
5
-18
9
5
-2
-17
13
-15
17
-24
-5
-5
11
10
-17
-17
-6
1
-24
-19
-6
13
-15
3
-8
-22
-5
1
-11
-23
-22
16
17
-3
4
12
-18
15
-1
3
-12
-15
2
-23
-9
-12
-4
-9
16
11
-15
-21
6
12
4
3
15
19
19
-7
-17
-8
17
20
14
-21
-5
0
-13
10
13
-18
10
1
-12
-6
-7
-3
-7
-17
9
-6
1
-7
-18
3
6
15
-17
-22
-5
-4
-19
-18
-15
16
-22
-9
13
-12
8
9
-16
-3
4
-7
-8
14
16
-22
-22
6
-4
-22
-13
-16
-13
6
-19
-13
-8
-8
-14
-4
4
-9
-10
-9
6
14
-18
6
-10
-2
14
2
-3
-24
7
-14
7
-1
19
-24
-22
-10
17
6
-6
1
-6
-15
-17
14
-2
-18
-25
20
-1
10
-18
18
8
-22
4
10
-21
-3
-18
-7
-14
-1
3
3
14
-9
14
8
-10
-23
-4
-3
-2
6
1
15
-7
4
-4
-13
-18
-17
6
12
-25
10
-25
-4
-6
7
-6
-10
-19
-22
3
7
14
4
-7
10
12
-5
12
-15
-15
7
8
-23
2
6
-12
-23
0
-6
-7
-20
-8
0
3
-22
-2
-14
1
-8
-4
3
-23
12
-7
-3
2
-26
18
14
-11
17
-24
-15
-10
8
-22
-26
11
-3
0
-27
11
4
-17
13
-21
12
-14
10
-26
-6
-15
-3
-3
9
14
4
-16
2
-7
-13
-20
2
-17
11
-6
1
6
14
1
11
-15
-2
-14
-19
-21
13
5
8
0
-16
0
-17
16
-4
12
-18
-8
11
6
16
-21
-5
16
-21
21
-1
16
8
-11
-6
-19
-20
-2
-27
-1
-2
-7
16
9
-15
-22
-16
-22
-17
-21
-4
16
-24
-20
-24
0
-1
-27
12
9
8
-23
-10
-5
-20
-2
14
7
-2
0
14
0
8
3
-9
-20
15
-10
-21
3
10
-8
16
-12
-2
-12
-19
9
37
21
-11
-1
31
52
20
-9
-15
28
-4
-62
26
-22
19
19
29
17
-16
37
39
7
6
-35
-69
37
50
-62
52
-6
6
1
-24
-58
-59
33
28
5
-46
-20
-22
14
-44
-37
-19
5
34
31
55
74
-12
-20
16
-6
6
7
-23
27
25
-58
37
11
-70
-3
66
41
55
-42
-7
-11
31
-3
-17
-3
-41
5
9
-5
-34
2
63
18
20
-4
4
-25
1
1
-53
16
-27
-4
30
-16
-87
32
86
-1
-4
-47
-13
-6
0
37
-86
38
-28
-25
-10
5
-57
39
25
-8
-5
-38
-48
12
6
-21
-96
15
-53
4
-23
-3
-4
88
-23
-22
30
-67
-72
0
21
-32
-76
89
-60
-41
38
-9
-64
47
0
57
28
-79
7
-5
28
-24
-53
-2
-44
-33
46
64
-22
-36
-17
-34
-39
5
36
28
8
-13
-82
7
63
9
1
-79
48
-14
-22
-48
23
20
49
42
56
-40
-32
25
63
33
9
1
9
-8
84
-30
6
20
40
25
44
9
8
-10
-4
-27
10
23
38
17
65
2
-27
-8
61
-15
-11
13
-28
51
58
-27
4
68
-38
-2
50
20
-3
-5
18
2
10
11
-16
12
1
-28
26
46
-30
24
44
4
14
-65
5
0
-5
13
-47
-7
-47
4
15
61
19
22
15
-28
31
-31
-12
12
-17
23
-49
15
-18
27
20
26
-1
-10
-24
31
47
-52
-13
36
20
-70
-70
-34
-18
14
37
32
29
-1
6
71
21
-4
-35
-1
13
23
-45
5
-28
-30
26
-15
15
-13
-3
-48
19
-88
-24
-8
76
-14
52
-18
-80
15
32
-42
-21
12
65
14
-52
-18
42
-71
29
3
-19
3
-17
-3
7
2
32
-22
-3
2
-23
4
84
32
-16
-35
-43
-26
42
-15
-21
9
-43
-16
34
8
16
-9
-8
2
2
-29
0
-24
-10
14
0
-23
-8
-29
-3
18
0
15
23
1
13
-24
-67
17
24
-45
28
31
-8
26
39
-14
30
23
12
18
0
-12
-55
29
-21
-46
8
3
8
30
-15
23
28
-21
-76
67
-21
16
9
55
-10
-17
33
72
57
-8
-3
30
21
-27
-31
-4
-19
-6
-50
23
-81
14
25
25
21
23
-71
39
43
9
-73
19
-5
-4
-24
-35
-35
11
11
44
16
3
-64
38
-6
36
-58
-33
66
-2
-21
-23
46
-33
4
48
-10
20
-14
27
-4
17
-43
48
-5
-23
-41
-28
-62
-53
-2
19
-14
51
56
20
44
32
-20
30
30
-40
6
-31
-55
-41
32
-14
28
5
0
1
64
-34
-10
41
75
-37
-46
6
-21
-84
-2
12
-21
-42
59
-3
22
12
38
18
52
-57
-31
-23
9
-42
-23
8
-14
-14
51
35
1
30
50
66
69
-14
-31
23
-40
-49
15
-2
-4
3
60
-27
42
-28
-8
38
28
-16
-2
40
16
-37
5
29
-22
27
-10
-15
16
-1
31
16
33
15
63
22
-23
-18
-4
-1
6
8
-21
19
31
-2
-36
46
-52
-32
-12
8
-2
-5
58
22
52
51
59
19
-17
-79
6
-53
12
-29
23
-31
-7
7
29
60
53
-25
-18
28
51
-10
-24
53
40
15
35
-6
-2
-13
-5
-25
-13
4
-13
26
36
-15
-44
5
27
-19
43
-11
-27
42
14
52
4
23
-43
-44
58
39
1
-2
3
-23
22
35
-8
-1
5
-50
64
18
58
-25
74
-24
-31
18
58
-34
13
22
-16
-28
-16
-18
20
-18
-47
-32
6
18
6
22
44
21
-36
9
5
4
-29
12
19
9
26
34
-6
43
-8
26
24
31
17
41
83
-26
-2
21
60
7
-4
58
-12
-2
-12
4
-9
41
-5
-27
-11
-17
-21
52
36
-21
-17
34
6
53
54
63
-26
12
-84
-3
-74
38
2
40
20
21
45
-15
43
54
9
13
-3
20
51
9
50
-5
30
-12
110
-7
-10
-31
49
55
18
-25
32
8
89
-37
23
14
2
86
67
-8
45
20
60
-41
49
19
-36
41
-25
2
15
5
-21
-25
-16
24
16
4
8
-62
-52
8
-17
16
-31
15
-18
-12
30
27
54
11
21
-72
-6
-53
23
35
6
-8
-33
16
7
-4
2
16
47
-6
-7
-33
13
19
33
20
18
-10
27
5
-11
-53
42
-10
3
15
-29
31
23
-27
2
4
28
36
20
-30
14
59
-2
10
-5
-32
-32
-6
-4
15
16
-8
2
19
-13
-3
48
28
15
42
26
21
-12
-5
-1
-58
27
-24
-9
-35
-5
-2
67
1
2
35
18
-24
-13
-11
21
6
0
43
-5
-21
-14
56
-2
33
22
-25
12
-26
-4
-36
-4
58
-3
14
23
4
-8
10
-37
-18
5
55
102
2
34
-10
-25
12
104
17
3
13
-44
-15
4
-28
9
51
9
-11
69
-25
-1
-7
30
-57
-1
19
29
5
-29
19
-21
-38
0
15
11
-2
-15
-2
-51
1
29
28
5
11
22
4
29
-29
60
24
18
-6
-30
-29
55
-29
8
-12
-21
-2
-46
-1
17
10
-1
31
19
-24
-4
-19
6
25
9
-32
-31
-23
-17
44
31
-35
29
-22
-68
22
30
74
0
54
4
-1
-42
-19
-21
24
27
17
46
-27
-29
27
64
-7
-5
17
5
49
68
-36
39
-13
-25
-8
-7
23
6
-25
13
-45
-9
24
60
-19
12
21
-25
-44
-39
-38
-15
4
-31
4
2
1
12
56
26
3
-26
44
-3
-25
-12
-17
23
18
33
32
18
-43
0
60
-3
7
-88
-33
-52
4
22
-44
70
5
-65
-15
-8
6
72
30
78
-15
-23
14
-43
-9
4
35
-13
1
47
-13
-42
-1
12
-21
32
55
47
-8
3
28
1
16
-18
39
12
43
-38
36
29
8
-1
30
-57
-27
16
22
35
0
39
-23
-32
-33
21
-51
-4
-24
1
-16
-2
14
-33
24
6
-29
28
30
-39
-8
16
-22
18
-40
-19
-57
-7
-11
-67
15
30
-23
34
67
-24
-40
28
-54
5
-53
-18
19
28
46
-47
-24
-7
0
2
15
44
36
-20
-11
43
10
19
31
80
45
11
6
8
-5
-15
24
20
32
-27
21
13
19
15
33
20
52
-51
5
28
-39
-12
90
31
18
12
0
49
-18
-3
36
49
18
-54
14
-19
7
86
2
40
-8
9
5
23
13
5
33
-37
13
-21
27
17
-29
37
40
-57
36
41
31
-15
45
3
11
-36
21
-26
16
17
34
14
32
-32
7
-2
46
-6
-32
-8
24
32
-21
38
46
23
57
43
7
87
5
-2
-38
67
-13
42
53
2
49
-1
-1
29
-10
52
-26
13
4
-16
-24
-13
-26
-3
-39
-22
-13
-29
6
17
-23
-25
26
-29
-16
-25
-24
27
-4
-4
-66
-93
23
-54
-31
63
-7
-3
13
-36
-15
10
-66
50
18
21
1
-21
32
-43
-13
-2
-9
-5
64
32
16
-17
-29
41
-11
-17
-22
0
36
-31
38
43
-8
-24
59
42
36
17
2
37
4
-30
-20
-11
27
46
-36
56
64
20
13
36
52
0
-25
14
13
35
20
24
34
33
0
23
20
23
23
-43
11
78
6
23
19
-4
46
22
11
-4
33
18
41
30
29
24
29
9
-22
76
-23
-33
63
91
1
46
89
2
-8
-29
30
-5
42
7
-7
24
-28
67
25
-6
5
23
39
-61
-19
-9
-15
39
39
-1
58
32
13
0
-12
-26
26
31
-5
25
-11
-5
-17
27
-42
-14
-3
64
-43
-19
-32
-33
25
-39
-15
25
1
19
30
16
-31
51
0
72
-10
0
1
-40
32
-45
-5
11
-33
-3
7
-14
-51
-2
-45
47
-4
-46
50
-63
38
-63
-12
-18
2
1
58
41
-22
34
-9
50
16
30
29
-34
18
-21
-50
16
-7
-28
19
23
-35
1
-21
25
18
-5
-14
-54
-12
-29
-1
46
12
34
-10
-9
4
19
-22
1
-49
6
20
2
14
12
-47
40
0
-6
14
-58
11
67
-43
-3
15
19
-8
8
-16
24
45
4
-9
21
44
22
79
33
-38
-7
30
47
27
38
34
33
9
46
51
-21
-26
-12
40
20
37
32
70
75
-1
-8
22
-50
-3
3
-45
-21
-24
-25
18
-29
40
6
-13
23
28
22
-12
22
-30
-42
62
23
14
6
4
-18
8
-19
-18
-7
-20
-3
11
21
7
15
-20
-6
2
4
-21
18
3
-19
-15
20
-4
20
4
1
19
-25
22
-16
0
-24
-8
-24
2
-5
-4
10
-21
12
9
15
-12
-13
18
-6
14
2
-9
17
7
-2
-12
4
-21
10
4
-22
-24
6
-14
-2
-1
2
-5
-19
-4
-21
-24
16
15
-18
12
-23
2
-19
2
22
-1
-2
-15
5
15
10
-23
26
-12
-13
-16
-22
-23
-2
-12
-5
-14
-10
-11
0
6
10
-14
-8
-3
-10
-19
20
19
-6
-24
12
-24
18
-1
-26
9
-13
5
15
-8
2
2
19
4
10
18
-6
-10
-4
13
-14
-13
5
14
-7
-21
12
10
10
-22
-9
-21
-3
-7
2
-4
4
-5
9
19
-15
10
-4
4
-15
9
-24
-11
19
-14
-20
-5
6
-7
11
-6
-13
-12
0
-14
24
-9
-18
-8
-3
23
-22
-19
15
-9
-4
7
15
-11
-15
12
23
-8
8
-6
-15
-18
3
6
-7
-7
15
-3
-14
-14
14
13
11
-15
-1
14
15
-16
-27
-10
-12
-7
-19
-24
16
-19
17
11
-3
1
-10
4
2
-24
-18
-10
-16
18
16
8
12
-5
16
0
6
16
-28
-4
-8
9
3
3
-11
-11
4
-1
-8
-6
7
4
-13
3
-5
10
-9
-22
0
-18
-1
-3
-11
-5
9
-18
-16
19
-4
-23
-6
-25
-16
-12
-13
10
10
1
12
12
-16
-19
-25
18
19
6
16
-25
-3
14
3
-9
3
13
16
-16
7
-6
-16
-18
-11
14
16
-14
15
3
-22
-16
9
5
-12
21
-13
-25
-3
-18
0
-18
-9
-1
-17
-15
-9
6
-17
-3
-16
-5
20
10
8
12
-5
-20
-13
-4
-8
15
-12
-19
-2
-9
16
-6
0
-21
17
-6
0
-18
-4
-4
7
-18
17
-24
-17
-22
-5
11
15
-5
-10
-6
-19
21
-23
-9
-16
16
5
-5
0
-18
2
-20
3
-21
6
-18
1
-10
4
2
17
8
7
-7
-2
-7
20
8
-27
-21
-3
-6
-8
15
11
20
-6
3
-7
10
15
-8
13
-20
-20
-13
-16
-4
2
15
9
-14
8
2
0
-8
-12
-18
0
-8
-11
-8
17
-12
16
15
-10
-14
-7
11
-5
10
-6
-16
-17
-13
20
-15
-6
-14
-20
-5
-19
14
-21
-1
-12
11
-2
3
-5
-15
13
-12
15
-6
-2
6
-26
2
0
14
9
-22
7
-6
2
-8
-4
14
11
14
-8
-15
-25
-8
-4
-10
-19
-19
-8
-21
-20
0
8
-10
-15
9
-7
15
15
-11
13
1
-4
-8
6
15
-15
-4
12
-2
18
8
-18
-17
3
-10
8
14
-2
-23
-25
-2
-9
-11
-23
-13
14
9
-13
-12
-12
20
-2
12
-5
14
-2
12
8
-6
8
15
-23
6
14
-18
-7
14
4
-7
-19
1
4
-3
0
-24
-18
-23
-21
9
14
2
-18
7
16
-14
-21
13
-24
14
-18
14
9
5
-18
-22
10
-18
-24
-5
-13
19
-22
20
4
-24
-4
8
16
19
18
-6
-9
6
10
0
-24
19
9
-21
22
-7
-14
20
-20
-20
13
-17
-14
16
-15
1
-3
-22
7
11
-3
-21
-19
-12
-27
15
-17
8
-10
12
14
1
-1
0
-25
18
3
-15
16
8
-18
16
6
10
6
-22
3
0
13
-21
9
-12
-5
12
12
9
16
-6
17
-2
12
-1
6
11
-21
5
-13
-20
-16
-4
21
3
17
-20
-1
-3
14
1
-14
22
14
-6
-16
14
8
-21
-24
-14
-18
-6
-22
-6
18
-24
1
-10
16
14
17
-26
-17
-7
-12
1
-20
-9
0
-18
6
-16
-11
-8
-27
11
7
-24
-7
-8
4
16
-14
6
12
-9
-20
-14
-24
14
0
-19
-18
-15
4
9
5
-24
-10
10
-18
4
-4
-1
-4
-5
12
14
7
14
21
-9
0
17
15
11
-16
-21
21
-13
-8
19
-11
18
15
16
-6
-17
-9
-12
-19
-18
10
-11
20
-20
-3
-3
-18
-7
-6
-4
10
-18
-9
-4
-21
-2
-8
4
-5
-23
-1
-13
-16
-16
2
-7
-22
-19
-10
-4
-5
-26
10
7
-12
-12
16
-23
0
4
-10
-25
4
-23
-17
-1
15
22
1
-15
-8
11
-27
-1
-15
15
-6
-14
-12
2
-18
12
-14
15
-1
8
1
6
-9
23
3
-13
-10
17
20
16
-4
0
-2
12
13
-9
15
-24
-16
-1
14
-19
-21
-11
-4
13
10
-19
-9
15
-5
7
1
12
-15
18
-15
-8
1
-23
-17
-6
-7
8
-5
15
-20
-23
18
-14
-16
-25
-13
-21
19
-20
-11
-23
3
17
-8
16
-15
2
-23
0
-8
-2
17
-1
-5
-23
17
14
8
0
0
11
-13
-13
7
-5
-24
-22
-16
-22
-18
-17
13
1
-3
-10
-3
-14
16
9
-26
6
-15
-8
8
-20
14
21
15
-6
-4
12
8
8
7
-23
-6
13
-25
-23
-15
16
-5
21
-10
-1
17
17
12
-17
15
-23
19
9
7
15
-14
-22
-10
9
-10
20
-16
9
-24
-17
-2
3
-15
-1
5
2
-22
-9
16
-5
-6
1
7
11
12
16
-13
-12
8
-18
2
14
14
7
11
-5
18
13
16
-24
-15
-23
-25
-2
12
11
3
-14
-22
17
-12
-11
-18
5
-15
16
10
-19
-3
-24
9
-28
-21
-19
-10
-10
-9
-12
10
-26
8
7
13
11
-16
-14
11
16
-4
14
17
-4
-21
-16
-4
8
17
-20
-19
3
-21
-24
-12
7
-11
8
-21
-23
-11
6
15
-5
18
-27
5
1
-26
-19
-12
-10
-25
3
-5
-2
-6
8
18
2
-26
4
-23
-2
2
12
8
11
1
-1
-23
10
9
-20
-25
-25
13
0
-3
4
6
14
-8
-11
-5
6
-3
12
13
-8
-4
-16
-7
13
7
11
16
1
-14
-6
-25
3
-10
13
-12
-18
7
-24
-22
-8
18
18
-1
5
1
8
13
16
14
-7
-24
-17
-24
-6
-9
10
18
-25
-1
-10
-22
-23
15
3
-4
-19
-7
5
-20
-5
8
19
-11
7
-10
12
8
-9
-20
3
-17
8
-20
-6
-5
-16
11
12
-1
-10
-5
19
9
-24
-12
-21
14
-2
-13
5
-21
4
-25
-23
-9
-13
-22
-4
-10
-18
-11
20
-1
-6
-24
-18
-2
15
7
4
4
12
4
-10
-14
19
-6
7
-3
15
13
-14
-7
-24
-14
15
12
7
11
8
-16
-16
-18
-16
5
3
-3
6
18
9
0
-22
4
-27
0
-24
-19
-11
-17
11
5
20
-11
-17
-1
-17
-4
-12
-10
-17
-14
-22
12
-27
2
19
-25
-19
-9
0
11
21
-10
3
6
15
-4
-5
0
-20
2
15
-17
-8
7
-21
-13
-15
-8
-19
-19
-20
-8
-5
4
-13
-18
4
-11
-11
-23
-19
18
-22
-9
7
-11
-22
-11
-14
6
-15
-18
23
18
11
-7
-17
-1
-17
-11
-10
-22
-9
13
17
11
10
-2
-10
16
-7
-7
-16
-22
-16
13
11
-7
8
-23
0
-12
3
-20
-14
-21
12
17
-15
9
-8
-18
-10
8
-17
-22
-3
-21
19
10
-17
-11
-18
15
-10
-9
-10
22
-1
8
-27
-15
-1
20
6
-14
20
-1
-5
-24
16
14
-19
-13
-2
-23
16
11
14
17
15
-26
-11
-12
-15
4
-4
-22
-23
9
-12
0
17
-17
-9
16
-16
-9
3
8
16
-13
-24
-20
-24
8
17
18
-2
-9
3
8
12
2
19
-4
3
-11
13
3
-20
-18
4
-19
-18
-19
-10
18
-20
13
-8
-18
-2
-17
-24
-1
-4
-4
-1
-10
5
4
-5
-12
1
6
-15
-2
-7
-15
-15
2
-28
20
8
-22
-20
-24
12
-21
-16
11
-15
-15
-21
16
-6
-20
-20
8
15
-7
-13
-9
1
-16
13
-23
4
16
13
-10
13
-6
-21
-15
-3
-19
-4
-20
2
19
-4
-16
-11
-2
-11
-15
13
2
-19
13
-23
-4
-4
1
-2
-14
-25
-18
7
16
-6
-15
-10
-3
14
4
0
-6
-18
15
-13
5
2
-12
12
-20
14
9
9
18
-10
11
17
15
-2
18
0
7
-23
-13
-3
19
6
-16
-23
16
-2
7
12
8
-7
-23
-11
-18
-12
-21
20
-11
-5
-23
-8
-3
12
22
6
11
0
-8
-27
-4
3
8
-5
-11
-25
-20
-3
9
-18
-19
9
-5
-26
-17
-4
13
11
3
-19
6
-17
-8
-20
13
-65
-54
9
70
-20
50
-60
-37
37
-83
49
91
-127
-22
27
61
28
1
-25
9
39
-40
-44
59
0
54
14
-9
-80
-59
57
-17
42
-58
92
100
-51
14
-68
50
-31
38
-41
46
-68
78
-87
-74
67
78
102
-35
50
-23
-16
-45
-27
-1
7
-4
108
-35
77
64
80
-46
42
46
16
52
22
-18
66
-64
-21
28
-65
-23
-58
-8
-12
-92
71
36
-111
-32
-20
-69
-37
1
98
-58
-59
-2
92
29
-127
-84
8
46
-14
-83
-14
-84
71
32
-49
-125
;